{
  "version": "1.0",
  "truncation": null,
  "padding": {
    "strategy": "BatchLongest",
    "direction": "Right",
    "pad_to_multiple_of": null,
    "pad_id": 0,
    "pad_type_id": 0,
    "pad_token": "<PAD>"
  },
  "added_tokens": [
    {
      "id": 0,
      "content": "<PAD>",
      "single_word": false,
      "lstrip": false,
      "rstrip": false,
      "normalized": false,
      "special": true
    },
    {
      "id": 1,
      "content": "<BOS>",
      "single_word": false,
      "lstrip": false,
      "rstrip": false,
      "normalized": false,
      "special": true
    },
    {
      "id": 2,
      "content": "<EOS>",
      "single_word": false,
      "lstrip": false,
      "rstrip": false,
      "normalized": false,
      "special": true
    }
  ],
  "normalizer": null,
  "pre_tokenizer": {
    "type": "Whitespace"
  },
  "post_processor": null,
  "decoder": null,
  "model": {
    "type": "BPE",
    "dropout": null,
    "unk_token": null,
    "continuing_subword_prefix": null,
    "end_of_word_suffix": null,
    "fuse_unk": false,
    "byte_fallback": false,
    "vocab": {
      "<PAD>": 0,
      "<BOS>": 1,
      "<EOS>": 2,
      "!": 3,
      "\"": 4,
      "#": 5,
      "$": 6,
      "%": 7,
      "&": 8,
      "'": 9,
      "(": 10,
      ")": 11,
      "*": 12,
      "+": 13,
      ",": 14,
      "-": 15,
      ".": 16,
      "/": 17,
      "0": 18,
      "1": 19,
      "2": 20,
      "3": 21,
      "4": 22,
      "5": 23,
      "6": 24,
      "7": 25,
      "8": 26,
      "9": 27,
      ":": 28,
      ";": 29,
      "<": 30,
      "=": 31,
      ">": 32,
      "?": 33,
      "@": 34,
      "A": 35,
      "B": 36,
      "C": 37,
      "D": 38,
      "E": 39,
      "F": 40,
      "G": 41,
      "H": 42,
      "I": 43,
      "J": 44,
      "K": 45,
      "L": 46,
      "M": 47,
      "N": 48,
      "O": 49,
      "P": 50,
      "Q": 51,
      "R": 52,
      "S": 53,
      "T": 54,
      "U": 55,
      "V": 56,
      "W": 57,
      "X": 58,
      "Y": 59,
      "Z": 60,
      "[": 61,
      "\\": 62,
      "]": 63,
      "^": 64,
      "_": 65,
      "`": 66,
      "a": 67,
      "b": 68,
      "c": 69,
      "d": 70,
      "e": 71,
      "f": 72,
      "g": 73,
      "h": 74,
      "i": 75,
      "j": 76,
      "k": 77,
      "l": 78,
      "m": 79,
      "n": 80,
      "o": 81,
      "p": 82,
      "q": 83,
      "r": 84,
      "s": 85,
      "t": 86,
      "u": 87,
      "v": 88,
      "w": 89,
      "x": 90,
      "y": 91,
      "z": 92,
      "{": 93,
      "|": 94,
      "}": 95,
      "~": 96,
      "": 97,
      "": 98,
      "": 99,
      "": 100,
      "": 101,
      "": 102,
      "": 103,
      "": 104,
      "": 105,
      "": 106,
      "": 107,
      "": 108,
      "": 109,
      "": 110,
      "": 111,
      "": 112,
      "": 113,
      "": 114,
      "": 115,
      "": 116,
      "": 117,
      "": 118,
      "": 119,
      "": 120,
      "": 121,
      "": 122,
      "": 123,
      "": 124,
      "": 125,
      "¡": 126,
      "¢": 127,
      "£": 128,
      "¤": 129,
      "¥": 130,
      "¦": 131,
      "§": 132,
      "¨": 133,
      "©": 134,
      "ª": 135,
      "«": 136,
      "¬": 137,
      "­": 138,
      "®": 139,
      "¯": 140,
      "°": 141,
      "±": 142,
      "²": 143,
      "³": 144,
      "´": 145,
      "µ": 146,
      "¶": 147,
      "·": 148,
      "¸": 149,
      "¹": 150,
      "º": 151,
      "»": 152,
      "¼": 153,
      "½": 154,
      "¾": 155,
      "¿": 156,
      "À": 157,
      "Á": 158,
      "Â": 159,
      "Ã": 160,
      "Ä": 161,
      "Å": 162,
      "Æ": 163,
      "Ç": 164,
      "È": 165,
      "É": 166,
      "Ê": 167,
      "Ë": 168,
      "Ì": 169,
      "Í": 170,
      "Î": 171,
      "Ï": 172,
      "Ð": 173,
      "Ñ": 174,
      "Ò": 175,
      "Ó": 176,
      "Ô": 177,
      "Õ": 178,
      "Ö": 179,
      "×": 180,
      "Ø": 181,
      "Ù": 182,
      "Ú": 183,
      "Û": 184,
      "Ü": 185,
      "Ý": 186,
      "Þ": 187,
      "ß": 188,
      "à": 189,
      "á": 190,
      "â": 191,
      "ã": 192,
      "ä": 193,
      "å": 194,
      "æ": 195,
      "ç": 196,
      "è": 197,
      "é": 198,
      "ê": 199,
      "ë": 200,
      "ì": 201,
      "í": 202,
      "î": 203,
      "ï": 204,
      "ð": 205,
      "ñ": 206,
      "ò": 207,
      "ó": 208,
      "ô": 209,
      "õ": 210,
      "ö": 211,
      "÷": 212,
      "ø": 213,
      "ù": 214,
      "ú": 215,
      "û": 216,
      "ü": 217,
      "ý": 218,
      "þ": 219,
      "ÿ": 220,
      "Ā": 221,
      "ā": 222,
      "Ă": 223,
      "ă": 224,
      "Ą": 225,
      "ą": 226,
      "Ć": 227,
      "ć": 228,
      "Ĉ": 229,
      "ĉ": 230,
      "Ċ": 231,
      "ċ": 232,
      "Č": 233,
      "č": 234,
      "Ď": 235,
      "ď": 236,
      "Đ": 237,
      "đ": 238,
      "Ē": 239,
      "ē": 240,
      "ĕ": 241,
      "Ė": 242,
      "ė": 243,
      "Ę": 244,
      "ę": 245,
      "Ě": 246,
      "ě": 247,
      "ĝ": 248,
      "Ğ": 249,
      "ğ": 250,
      "Ġ": 251,
      "ġ": 252,
      "Ģ": 253,
      "ģ": 254,
      "ĥ": 255,
      "Ħ": 256,
      "ħ": 257,
      "ĩ": 258,
      "Ī": 259,
      "ī": 260,
      "ĭ": 261,
      "Į": 262,
      "į": 263,
      "İ": 264,
      "ı": 265,
      "Ĳ": 266,
      "ĵ": 267,
      "Ķ": 268,
      "ķ": 269,
      "ĸ": 270,
      "Ĺ": 271,
      "ĺ": 272,
      "Ļ": 273,
      "ļ": 274,
      "Ľ": 275,
      "ľ": 276,
      "Ŀ": 277,
      "Ł": 278,
      "ł": 279,
      "Ń": 280,
      "ń": 281,
      "Ņ": 282,
      "ņ": 283,
      "Ň": 284,
      "ň": 285,
      "ŋ": 286,
      "Ō": 287,
      "ō": 288,
      "ŏ": 289,
      "Ő": 290,
      "ő": 291,
      "Œ": 292,
      "œ": 293,
      "Ŕ": 294,
      "ŕ": 295,
      "Ř": 296,
      "ř": 297,
      "Ś": 298,
      "ś": 299,
      "Ŝ": 300,
      "ŝ": 301,
      "Ş": 302,
      "ş": 303,
      "Š": 304,
      "š": 305,
      "Ţ": 306,
      "ţ": 307,
      "Ť": 308,
      "ť": 309,
      "ũ": 310,
      "Ū": 311,
      "ū": 312,
      "ŭ": 313,
      "Ů": 314,
      "ů": 315,
      "Ű": 316,
      "ű": 317,
      "Ų": 318,
      "ų": 319,
      "ŵ": 320,
      "ŷ": 321,
      "Ÿ": 322,
      "Ź": 323,
      "ź": 324,
      "Ż": 325,
      "ż": 326,
      "Ž": 327,
      "ž": 328,
      "ſ": 329,
      "Ɔ": 330,
      "Ƒ": 331,
      "ƒ": 332,
      "Ɠ": 333,
      "Ɩ": 334,
      "Ƙ": 335,
      "ƛ": 336,
      "Ɲ": 337,
      "Ơ": 338,
      "ơ": 339,
      "Ʀ": 340,
      "Ƭ": 341,
      "ư": 342,
      "ǎ": 343,
      "ǐ": 344,
      "ǒ": 345,
      "ǔ": 346,
      "ǘ": 347,
      "ǜ": 348,
      "ǝ": 349,
      "ǟ": 350,
      "ǣ": 351,
      "ǫ": 352,
      "Ǵ": 353,
      "ǵ": 354,
      "Ǻ": 355,
      "ȃ": 356,
      "ș": 357,
      "ț": 358,
      "Ȣ": 359,
      "Ȥ": 360,
      "Ȼ": 361,
      "ɐ": 362,
      "ɑ": 363,
      "ɒ": 364,
      "ɔ": 365,
      "ɕ": 366,
      "ə": 367,
      "ɚ": 368,
      "ɛ": 369,
      "ɜ": 370,
      "ɡ": 371,
      "ɢ": 372,
      "ɣ": 373,
      "ɤ": 374,
      "ɨ": 375,
      "ɪ": 376,
      "ɫ": 377,
      "ɬ": 378,
      "ɯ": 379,
      "ɲ": 380,
      "ɴ": 381,
      "ɵ": 382,
      "ɹ": 383,
      "ɾ": 384,
      "ʀ": 385,
      "ʁ": 386,
      "ʃ": 387,
      "ʊ": 388,
      "ʋ": 389,
      "ʌ": 390,
      "ʎ": 391,
      "ʐ": 392,
      "ʒ": 393,
      "ʔ": 394,
      "ʚ": 395,
      "ʤ": 396,
      "ʦ": 397,
      "ʰ": 398,
      "ʲ": 399,
      "ʺ": 400,
      "ʻ": 401,
      "ʼ": 402,
      "ʾ": 403,
      "ʿ": 404,
      "ˁ": 405,
      "ˆ": 406,
      "ˇ": 407,
      "ˈ": 408,
      "ˌ": 409,
      "ː": 410,
      "ˑ": 411,
      "˘": 412,
      "˙": 413,
      "˚": 414,
      "˛": 415,
      "˜": 416,
      "˝": 417,
      "ˡ": 418,
      "ˤ": 419,
      "̀": 420,
      "́": 421,
      "̂": 422,
      "̃": 423,
      "̄": 424,
      "̆": 425,
      "̇": 426,
      "̈": 427,
      "̍": 428,
      "̡": 429,
      "̣": 430,
      "̤": 431,
      "̧": 432,
      "̯": 433,
      "̱": 434,
      "̶": 435,
      "͘": 436,
      "͡": 437,
      ";": 438,
      "΄": 439,
      "Ά": 440,
      "Έ": 441,
      "Ί": 442,
      "Ό": 443,
      "Ώ": 444,
      "ΐ": 445,
      "Α": 446,
      "Β": 447,
      "Γ": 448,
      "Δ": 449,
      "Ε": 450,
      "Ζ": 451,
      "Η": 452,
      "Θ": 453,
      "Ι": 454,
      "Κ": 455,
      "Λ": 456,
      "Μ": 457,
      "Ν": 458,
      "Ο": 459,
      "Π": 460,
      "Ρ": 461,
      "Σ": 462,
      "Τ": 463,
      "Υ": 464,
      "Φ": 465,
      "Χ": 466,
      "Ω": 467,
      "ά": 468,
      "έ": 469,
      "ή": 470,
      "ί": 471,
      "α": 472,
      "β": 473,
      "γ": 474,
      "δ": 475,
      "ε": 476,
      "ζ": 477,
      "η": 478,
      "θ": 479,
      "ι": 480,
      "κ": 481,
      "λ": 482,
      "μ": 483,
      "ν": 484,
      "ξ": 485,
      "ο": 486,
      "π": 487,
      "ρ": 488,
      "ς": 489,
      "σ": 490,
      "τ": 491,
      "υ": 492,
      "φ": 493,
      "χ": 494,
      "ψ": 495,
      "ω": 496,
      "ϊ": 497,
      "ϋ": 498,
      "ό": 499,
      "ύ": 500,
      "ώ": 501,
      "Ё": 502,
      "Ђ": 503,
      "Ѓ": 504,
      "Є": 505,
      "Ѕ": 506,
      "І": 507,
      "Ї": 508,
      "Ј": 509,
      "Љ": 510,
      "Њ": 511,
      "Ћ": 512,
      "Ќ": 513,
      "Ў": 514,
      "Џ": 515,
      "А": 516,
      "Б": 517,
      "В": 518,
      "Г": 519,
      "Д": 520,
      "Е": 521,
      "Ж": 522,
      "З": 523,
      "И": 524,
      "Й": 525,
      "К": 526,
      "Л": 527,
      "М": 528,
      "Н": 529,
      "О": 530,
      "П": 531,
      "Р": 532,
      "С": 533,
      "Т": 534,
      "У": 535,
      "Ф": 536,
      "Х": 537,
      "Ц": 538,
      "Ч": 539,
      "Ш": 540,
      "Щ": 541,
      "Ъ": 542,
      "Ы": 543,
      "Ь": 544,
      "Э": 545,
      "Ю": 546,
      "Я": 547,
      "а": 548,
      "б": 549,
      "в": 550,
      "г": 551,
      "д": 552,
      "е": 553,
      "ж": 554,
      "з": 555,
      "и": 556,
      "й": 557,
      "к": 558,
      "л": 559,
      "м": 560,
      "н": 561,
      "о": 562,
      "п": 563,
      "р": 564,
      "с": 565,
      "т": 566,
      "у": 567,
      "ф": 568,
      "х": 569,
      "ц": 570,
      "ч": 571,
      "ш": 572,
      "щ": 573,
      "ъ": 574,
      "ы": 575,
      "ь": 576,
      "э": 577,
      "ю": 578,
      "я": 579,
      "ё": 580,
      "ђ": 581,
      "ѓ": 582,
      "є": 583,
      "ѕ": 584,
      "і": 585,
      "ї": 586,
      "ј": 587,
      "љ": 588,
      "њ": 589,
      "ћ": 590,
      "ќ": 591,
      "ў": 592,
      "џ": 593,
      "Ѳ": 594,
      "ѳ": 595,
      "Ґ": 596,
      "ґ": 597,
      "ғ": 598,
      "ҙ": 599,
      "қ": 600,
      "Ҡ": 601,
      "ҡ": 602,
      "ң": 603,
      "ү": 604,
      "ұ": 605,
      "Ҳ": 606,
      "ҳ": 607,
      "һ": 608,
      "ә": 609,
      "ө": 610,
      "ӳ": 611,
      "ְ": 612,
      "ֲ": 613,
      "ֳ": 614,
      "ִ": 615,
      "ֵ": 616,
      "ֶ": 617,
      "ַ": 618,
      "ָ": 619,
      "ֹ": 620,
      "ּ": 621,
      "ֿ": 622,
      "ׁ": 623,
      "א": 624,
      "ב": 625,
      "ג": 626,
      "ד": 627,
      "ה": 628,
      "ו": 629,
      "ז": 630,
      "ח": 631,
      "ט": 632,
      "י": 633,
      "כ": 634,
      "ל": 635,
      "ם": 636,
      "מ": 637,
      "ן": 638,
      "נ": 639,
      "ס": 640,
      "ע": 641,
      "פ": 642,
      "ץ": 643,
      "צ": 644,
      "ק": 645,
      "ר": 646,
      "ש": 647,
      "ת": 648,
      "،": 649,
      "ؒ": 650,
      "؛": 651,
      "ء": 652,
      "آ": 653,
      "أ": 654,
      "ؤ": 655,
      "إ": 656,
      "ئ": 657,
      "ا": 658,
      "ب": 659,
      "ة": 660,
      "ت": 661,
      "ث": 662,
      "ج": 663,
      "ح": 664,
      "خ": 665,
      "د": 666,
      "ذ": 667,
      "ر": 668,
      "ز": 669,
      "س": 670,
      "ش": 671,
      "ص": 672,
      "ض": 673,
      "ط": 674,
      "ظ": 675,
      "ع": 676,
      "غ": 677,
      "ـ": 678,
      "ف": 679,
      "ق": 680,
      "ك": 681,
      "ل": 682,
      "م": 683,
      "ن": 684,
      "ه": 685,
      "و": 686,
      "ى": 687,
      "ي": 688,
      "ً": 689,
      "ٌ": 690,
      "ٍ": 691,
      "َ": 692,
      "ُ": 693,
      "ِ": 694,
      "ّ": 695,
      "ْ": 696,
      "ٲ": 697,
      "ٹ": 698,
      "ټ": 699,
      "پ": 700,
      "ځ": 701,
      "چ": 702,
      "ڠ": 703,
      "ڤ": 704,
      "ک": 705,
      "ڬ": 706,
      "ڭ": 707,
      "گ": 708,
      "ھ": 709,
      "ہ": 710,
      "ۂ": 711,
      "ۆ": 712,
      "ۇ": 713,
      "ی": 714,
      "ې": 715,
      "ە": 716,
      "۞": 717,
      "۩": 718,
      "۰": 719,
      "۱": 720,
      "۲": 721,
      "۳": 722,
      "۴": 723,
      "۵": 724,
      "۶": 725,
      "۷": 726,
      "۸": 727,
      "۹": 728,
      "ރ": 729,
      "ކ": 730,
      "އ": 731,
      "މ": 732,
      "ާ": 733,
      "ި": 734,
      "ެ": 735,
      "ߖ": 736,
      "ߧ": 737,
      "߮": 738,
      "ं": 739,
      "अ": 740,
      "आ": 741,
      "ई": 742,
      "उ": 743,
      "क": 744,
      "ग": 745,
      "च": 746,
      "छ": 747,
      "ज": 748,
      "ञ": 749,
      "ट": 750,
      "ड": 751,
      "ढ": 752,
      "ण": 753,
      "त": 754,
      "थ": 755,
      "द": 756,
      "ध": 757,
      "न": 758,
      "प": 759,
      "ब": 760,
      "भ": 761,
      "म": 762,
      "य": 763,
      "र": 764,
      "ल": 765,
      "व": 766,
      "श": 767,
      "ष": 768,
      "स": 769,
      "ह": 770,
      "़": 771,
      "ा": 772,
      "ि": 773,
      "ी": 774,
      "ु": 775,
      "ृ": 776,
      "े": 777,
      "ॉ": 778,
      "ो": 779,
      "्": 780,
      "ॐ": 781,
      "ॡ": 782,
      "०": 783,
      "१": 784,
      "२": 785,
      "३": 786,
      "५": 787,
      "९": 788,
      "ং": 789,
      "আ": 790,
      "ই": 791,
      "এ": 792,
      "ক": 793,
      "গ": 794,
      "ঙ": 795,
      "চ": 796,
      "ট": 797,
      "ত": 798,
      "ন": 799,
      "প": 800,
      "ব": 801,
      "ম": 802,
      "য": 803,
      "র": 804,
      "ল": 805,
      "শ": 806,
      "ষ": 807,
      "হ": 808,
      "়": 809,
      "া": 810,
      "ি": 811,
      "ু": 812,
      "ো": 813,
      "্": 814,
      "ৰ": 815,
      "ਗ": 816,
      "ਚ": 817,
      "ਡ": 818,
      "ਹ": 819,
      "ੀ": 820,
      "੍": 821,
      "ੜ": 822,
      "ੰ": 823,
      "ં": 824,
      "અ": 825,
      "ક": 826,
      "જ": 827,
      "ત": 828,
      "મ": 829,
      "ય": 830,
      "ર": 831,
      "સ": 832,
      "ા": 833,
      "િ": 834,
      "ુ": 835,
      "ે": 836,
      "્": 837,
      "૦": 838,
      "૧": 839,
      "૨": 840,
      "க": 841,
      "ங": 842,
      "ச": 843,
      "ட": 844,
      "த": 845,
      "ன": 846,
      "ப": 847,
      "ம": 848,
      "ய": 849,
      "ர": 850,
      "ல": 851,
      "வ": 852,
      "ஷ": 853,
      "ா": 854,
      "ி": 855,
      "ு": 856,
      "ூ": 857,
      "ெ": 858,
      "ை": 859,
      "ோ": 860,
      "்": 861,
      "ం": 862,
      "ఆ": 863,
      "క": 864,
      "గ": 865,
      "జ": 866,
      "డ": 867,
      "ద": 868,
      "ధ": 869,
      "న": 870,
      "ప": 871,
      "ర": 872,
      "శ": 873,
      "ా": 874,
      "ు": 875,
      "ె": 876,
      "ే": 877,
      "ొ": 878,
      "్": 879,
      "ౕ": 880,
      "ಐ": 881,
      "ಯ": 882,
      "ರ": 883,
      "ವ": 884,
      "ಶ": 885,
      "ಾ": 886,
      "ೆ": 887,
      "ೈ": 888,
      "್": 889,
      "ೖ": 890,
      "೦": 891,
      "೧": 892,
      "೨": 893,
      "೩": 894,
      "೫": 895,
      "೬": 896,
      "೮": 897,
      "೯": 898,
      "അ": 899,
      "എ": 900,
      "ക": 901,
      "ത": 902,
      "ദ": 903,
      "ന": 904,
      "പ": 905,
      "മ": 906,
      "യ": 907,
      "ല": 908,
      "വ": 909,
      "ഷ": 910,
      "സ": 911,
      "ി": 912,
      "ീ": 913,
      "ു": 914,
      "ോ": 915,
      "്": 916,
      "න": 917,
      "ම": 918,
      "ර": 919,
      "ව": 920,
      "හ": 921,
      "ු": 922,
      "ก": 923,
      "ข": 924,
      "ค": 925,
      "ฆ": 926,
      "ง": 927,
      "จ": 928,
      "ฉ": 929,
      "ช": 930,
      "ซ": 931,
      "ญ": 932,
      "ฎ": 933,
      "ฏ": 934,
      "ฐ": 935,
      "ฑ": 936,
      "ฒ": 937,
      "ณ": 938,
      "ด": 939,
      "ต": 940,
      "ถ": 941,
      "ท": 942,
      "ธ": 943,
      "น": 944,
      "บ": 945,
      "ป": 946,
      "ผ": 947,
      "ฝ": 948,
      "พ": 949,
      "ฟ": 950,
      "ภ": 951,
      "ม": 952,
      "ย": 953,
      "ร": 954,
      "ฤ": 955,
      "ล": 956,
      "ว": 957,
      "ศ": 958,
      "ษ": 959,
      "ส": 960,
      "ห": 961,
      "อ": 962,
      "ฮ": 963,
      "ฯ": 964,
      "ะ": 965,
      "ั": 966,
      "า": 967,
      "ำ": 968,
      "ิ": 969,
      "ี": 970,
      "ึ": 971,
      "ื": 972,
      "ุ": 973,
      "ู": 974,
      "฿": 975,
      "เ": 976,
      "แ": 977,
      "โ": 978,
      "ใ": 979,
      "ไ": 980,
      "ๆ": 981,
      "็": 982,
      "่": 983,
      "้": 984,
      "๊": 985,
      "๋": 986,
      "์": 987,
      "๑": 988,
      "ຂ": 989,
      "ຄ": 990,
      "ງ": 991,
      "ຈ": 992,
      "ດ": 993,
      "ຖ": 994,
      "ນ": 995,
      "ບ": 996,
      "ມ": 997,
      "ລ": 998,
      "ວ": 999,
      "ັ": 1000,
      "າ": 1001,
      "ຸ": 1002,
      "ົ": 1003,
      "ຽ": 1004,
      "ເ": 1005,
      "້": 1006,
      "ໜ": 1007,
      "་": 1008,
      "ཏ": 1009,
      "ད": 1010,
      "ན": 1011,
      "བ": 1012,
      "མ": 1013,
      "ཚ": 1014,
      "འ": 1015,
      "ལ": 1016,
      "ས": 1017,
      "ཱ": 1018,
      "ི": 1019,
      "ོ": 1020,
      "ྔ": 1021,
      "ླ": 1022,
      "န": 1023,
      "ရ": 1024,
      "ဝ": 1025,
      "သ": 1026,
      "ဟ": 1027,
      "ေ": 1028,
      "္": 1029,
      "ა": 1030,
      "ბ": 1031,
      "გ": 1032,
      "დ": 1033,
      "ე": 1034,
      "ვ": 1035,
      "ზ": 1036,
      "თ": 1037,
      "ი": 1038,
      "კ": 1039,
      "ლ": 1040,
      "მ": 1041,
      "ნ": 1042,
      "ო": 1043,
      "პ": 1044,
      "რ": 1045,
      "ს": 1046,
      "ტ": 1047,
      "უ": 1048,
      "ქ": 1049,
      "ღ": 1050,
      "შ": 1051,
      "ც": 1052,
      "ძ": 1053,
      "წ": 1054,
      "ხ": 1055,
      "ჯ": 1056,
      "ህ": 1057,
      "ሊ": 1058,
      "ል": 1059,
      "ሓ": 1060,
      "ሕ": 1061,
      "መ": 1062,
      "ሙ": 1063,
      "ሜ": 1064,
      "ም": 1065,
      "ሥ": 1066,
      "ረ": 1067,
      "ሪ": 1068,
      "ራ": 1069,
      "ር": 1070,
      "ሰ": 1071,
      "ሴ": 1072,
      "ስ": 1073,
      "ሻ": 1074,
      "ሽ": 1075,
      "ቀ": 1076,
      "ቐ": 1077,
      "በ": 1078,
      "ቢ": 1079,
      "ባ": 1080,
      "ተ": 1081,
      "ት": 1082,
      "ቶ": 1083,
      "ነ": 1084,
      "ን": 1085,
      "አ": 1086,
      "ኣ": 1087,
      "ኤ": 1088,
      "እ": 1089,
      "ኦ": 1090,
      "ካ": 1091,
      "ክ": 1092,
      "ዋ": 1093,
      "ው": 1094,
      "ዓ": 1095,
      "ዕ": 1096,
      "የ": 1097,
      "ይ": 1098,
      "ደ": 1099,
      "ዲ": 1100,
      "ድ": 1101,
      "ገ": 1102,
      "ጋ": 1103,
      "ጨ": 1104,
      "ጽ": 1105,
      "ፅ": 1106,
      "ፈ": 1107,
      "ፍ": 1108,
      "፣": 1109,
      "Ꭰ": 1110,
      "Ꭲ": 1111,
      "Ꮊ": 1112,
      "ᐃ": 1113,
      "ᐊ": 1114,
      "ᑦ": 1115,
      "ᑲ": 1116,
      "ᒃ": 1117,
      "ᒥ": 1118,
      "ᓄ": 1119,
      "ᓕ": 1120,
      "ដ": 1121,
      "ឋ": 1122,
      "រ": 1123,
      "ស": 1124,
      "ហ": 1125,
      "្": 1126,
      "ḇ": 1127,
      "ḍ": 1128,
      "ḏ": 1129,
      "ḗ": 1130,
      "Ḥ": 1131,
      "ḥ": 1132,
      "Ḫ": 1133,
      "ḫ": 1134,
      "ḳ": 1135,
      "ḷ": 1136,
      "ḿ": 1137,
      "ṃ": 1138,
      "ṅ": 1139,
      "ṇ": 1140,
      "ṉ": 1141,
      "ṛ": 1142,
      "ṣ": 1143,
      "Ṭ": 1144,
      "ṭ": 1145,
      "Ṯ": 1146,
      "ṳ": 1147,
      "ẋ": 1148,
      "ạ": 1149,
      "ả": 1150,
      "ấ": 1151,
      "ầ": 1152,
      "ẩ": 1153,
      "ậ": 1154,
      "ắ": 1155,
      "ằ": 1156,
      "Ẳ": 1157,
      "ẵ": 1158,
      "ặ": 1159,
      "ẻ": 1160,
      "ẽ": 1161,
      "ế": 1162,
      "ề": 1163,
      "ể": 1164,
      "ễ": 1165,
      "ệ": 1166,
      "ỉ": 1167,
      "ị": 1168,
      "Ọ": 1169,
      "ọ": 1170,
      "ỏ": 1171,
      "ố": 1172,
      "ồ": 1173,
      "ổ": 1174,
      "ộ": 1175,
      "ớ": 1176,
      "ờ": 1177,
      "ở": 1178,
      "ỡ": 1179,
      "ợ": 1180,
      "ụ": 1181,
      "ủ": 1182,
      "ứ": 1183,
      "ừ": 1184,
      "ử": 1185,
      "ữ": 1186,
      "ự": 1187,
      "ỳ": 1188,
      "ỹ": 1189,
      "ἀ": 1190,
      "ἁ": 1191,
      "ἄ": 1192,
      "ἅ": 1193,
      "Ἀ": 1194,
      "ἐ": 1195,
      "ἑ": 1196,
      "ἔ": 1197,
      "Ἔ": 1198,
      "ἠ": 1199,
      "ἡ": 1200,
      "ἦ": 1201,
      "Ἡ": 1202,
      "Ἥ": 1203,
      "ἰ": 1204,
      "Ἱ": 1205,
      "ὁ": 1206,
      "ὄ": 1207,
      "Ὑ": 1208,
      "ά": 1209,
      "ὶ": 1210,
      "ὺ": 1211,
      "ῆ": 1212,
      "ῑ": 1213,
      "ῖ": 1214,
      "ῥ": 1215,
      "ῦ": 1216,
      "​": 1217,
      "‌": 1218,
      "‍": 1219,
      "‎": 1220,
      "‏": 1221,
      "‐": 1222,
      "‑": 1223,
      "‒": 1224,
      "–": 1225,
      "—": 1226,
      "―": 1227,
      "‖": 1228,
      "‘": 1229,
      "’": 1230,
      "‚": 1231,
      "‛": 1232,
      "“": 1233,
      "”": 1234,
      "„": 1235,
      "‟": 1236,
      "†": 1237,
      "‡": 1238,
      "•": 1239,
      "…": 1240,
      "‪": 1241,
      "‬": 1242,
      "‭": 1243,
      "‰": 1244,
      "′": 1245,
      "″": 1246,
      "‶": 1247,
      "‹": 1248,
      "›": 1249,
      "※": 1250,
      "‼": 1251,
      "‽": 1252,
      "⁄": 1253,
      "⁴": 1254,
      "ⁿ": 1255,
      "₁": 1256,
      "₂": 1257,
      "₠": 1258,
      "₣": 1259,
      "₤": 1260,
      "₩": 1261,
      "₪": 1262,
      "€": 1263,
      "₴": 1264,
      "₵": 1265,
      "⃛": 1266,
      "℃": 1267,
      "ℓ": 1268,
      "℔": 1269,
      "№": 1270,
      "™": 1271,
      "Ω": 1272,
      "℮": 1273,
      "⅓": 1274,
      "⅔": 1275,
      "⅛": 1276,
      "⅞": 1277,
      "Ⅱ": 1278,
      "Ⅲ": 1279,
      "←": 1280,
      "↑": 1281,
      "→": 1282,
      "↓": 1283,
      "↔": 1284,
      "↧": 1285,
      "⇒": 1286,
      "⇔": 1287,
      "⇗": 1288,
      "⇢": 1289,
      "∀": 1290,
      "∃": 1291,
      "∈": 1292,
      "∑": 1293,
      "−": 1294,
      "∙": 1295,
      "√": 1296,
      "∞": 1297,
      "∫": 1298,
      "∴": 1299,
      "∶": 1300,
      "∼": 1301,
      "≈": 1302,
      "≠": 1303,
      "≡": 1304,
      "≤": 1305,
      "≥": 1306,
      "≪": 1307,
      "≫": 1308,
      "⋅": 1309,
      "⌃": 1310,
      "⌘": 1311,
      "①": 1312,
      "②": 1313,
      "③": 1314,
      "─": 1315,
      "│": 1316,
      "┌": 1317,
      "┐": 1318,
      "└": 1319,
      "┘": 1320,
      "┬": 1321,
      "┴": 1322,
      "╚": 1323,
      "╞": 1324,
      "╩": 1325,
      "█": 1326,
      "░": 1327,
      "▒": 1328,
      "■": 1329,
      "□": 1330,
      "▪": 1331,
      "▲": 1332,
      "△": 1333,
      "▸": 1334,
      "►": 1335,
      "▼": 1336,
      "◆": 1337,
      "◇": 1338,
      "◈": 1339,
      "◊": 1340,
      "○": 1341,
      "◎": 1342,
      "●": 1343,
      "◙": 1344,
      "◦": 1345,
      "★": 1346,
      "☆": 1347,
      "☎": 1348,
      "☏": 1349,
      "☑": 1350,
      "☯": 1351,
      "☺": 1352,
      "☻": 1353,
      "☼": 1354,
      "♀": 1355,
      "♂": 1356,
      "♠": 1357,
      "♣": 1358,
      "♥": 1359,
      "♦": 1360,
      "♪": 1361,
      "♫": 1362,
      "✿": 1363,
      "➔": 1364,
      "➚": 1365,
      "➟": 1366,
      "➲": 1367,
      "Ⰶ": 1368,
      "ⲉ": 1369,
      "ⲟ": 1370,
      "Ⲡ": 1371,
      "ⲣ": 1372,
      "ⲩ": 1373,
      "、": 1374,
      "。": 1375,
      "々": 1376,
      "《": 1377,
      "》": 1378,
      "「": 1379,
      "」": 1380,
      "『": 1381,
      "』": 1382,
      "【": 1383,
      "】": 1384,
      "〔": 1385,
      "〕": 1386,
      "〜": 1387,
      "ぁ": 1388,
      "あ": 1389,
      "ぃ": 1390,
      "い": 1391,
      "う": 1392,
      "ぇ": 1393,
      "え": 1394,
      "お": 1395,
      "か": 1396,
      "が": 1397,
      "き": 1398,
      "ぎ": 1399,
      "く": 1400,
      "ぐ": 1401,
      "け": 1402,
      "げ": 1403,
      "こ": 1404,
      "ご": 1405,
      "さ": 1406,
      "ざ": 1407,
      "し": 1408,
      "じ": 1409,
      "す": 1410,
      "ず": 1411,
      "せ": 1412,
      "ぜ": 1413,
      "そ": 1414,
      "ぞ": 1415,
      "た": 1416,
      "だ": 1417,
      "ち": 1418,
      "ぢ": 1419,
      "っ": 1420,
      "つ": 1421,
      "づ": 1422,
      "て": 1423,
      "で": 1424,
      "と": 1425,
      "ど": 1426,
      "な": 1427,
      "に": 1428,
      "ぬ": 1429,
      "ね": 1430,
      "の": 1431,
      "は": 1432,
      "ば": 1433,
      "ひ": 1434,
      "び": 1435,
      "ふ": 1436,
      "ぶ": 1437,
      "ぷ": 1438,
      "へ": 1439,
      "べ": 1440,
      "ほ": 1441,
      "ぼ": 1442,
      "ま": 1443,
      "み": 1444,
      "む": 1445,
      "め": 1446,
      "も": 1447,
      "ゃ": 1448,
      "や": 1449,
      "ゅ": 1450,
      "ゆ": 1451,
      "ょ": 1452,
      "よ": 1453,
      "ら": 1454,
      "り": 1455,
      "る": 1456,
      "れ": 1457,
      "ろ": 1458,
      "わ": 1459,
      "ゐ": 1460,
      "ゑ": 1461,
      "を": 1462,
      "ん": 1463,
      "ゔ": 1464,
      "゛": 1465,
      "゜": 1466,
      "ァ": 1467,
      "ア": 1468,
      "ィ": 1469,
      "イ": 1470,
      "ゥ": 1471,
      "ウ": 1472,
      "ェ": 1473,
      "エ": 1474,
      "ォ": 1475,
      "オ": 1476,
      "カ": 1477,
      "ガ": 1478,
      "キ": 1479,
      "ギ": 1480,
      "ク": 1481,
      "グ": 1482,
      "ケ": 1483,
      "ゲ": 1484,
      "コ": 1485,
      "ゴ": 1486,
      "サ": 1487,
      "ザ": 1488,
      "シ": 1489,
      "ジ": 1490,
      "ス": 1491,
      "ズ": 1492,
      "セ": 1493,
      "ゼ": 1494,
      "ソ": 1495,
      "ゾ": 1496,
      "タ": 1497,
      "ダ": 1498,
      "チ": 1499,
      "ッ": 1500,
      "ツ": 1501,
      "テ": 1502,
      "デ": 1503,
      "ト": 1504,
      "ド": 1505,
      "ナ": 1506,
      "ニ": 1507,
      "ヌ": 1508,
      "ネ": 1509,
      "ノ": 1510,
      "ハ": 1511,
      "バ": 1512,
      "パ": 1513,
      "ヒ": 1514,
      "ビ": 1515,
      "ピ": 1516,
      "フ": 1517,
      "ブ": 1518,
      "プ": 1519,
      "ヘ": 1520,
      "ベ": 1521,
      "ペ": 1522,
      "ホ": 1523,
      "ボ": 1524,
      "ポ": 1525,
      "マ": 1526,
      "ミ": 1527,
      "ム": 1528,
      "メ": 1529,
      "モ": 1530,
      "ャ": 1531,
      "ヤ": 1532,
      "ュ": 1533,
      "ユ": 1534,
      "ョ": 1535,
      "ヨ": 1536,
      "ラ": 1537,
      "リ": 1538,
      "ル": 1539,
      "レ": 1540,
      "ロ": 1541,
      "ワ": 1542,
      "ン": 1543,
      "ヴ": 1544,
      "・": 1545,
      "ー": 1546,
      "ㄅ": 1547,
      "ㄆ": 1548,
      "ㄇ": 1549,
      "ㄈ": 1550,
      "ㄤ": 1551,
      "ㄧ": 1552,
      "ㅓ": 1553,
      "ㅔ": 1554,
      "ㅕ": 1555,
      "ㅖ": 1556,
      "ㅡ": 1557,
      "ㅣ": 1558,
      "㎡": 1559,
      "䟩": 1560,
      "一": 1561,
      "七": 1562,
      "万": 1563,
      "丈": 1564,
      "三": 1565,
      "上": 1566,
      "下": 1567,
      "不": 1568,
      "与": 1569,
      "专": 1570,
      "世": 1571,
      "丘": 1572,
      "业": 1573,
      "东": 1574,
      "两": 1575,
      "严": 1576,
      "丨": 1577,
      "个": 1578,
      "中": 1579,
      "丰": 1580,
      "临": 1581,
      "丸": 1582,
      "丹": 1583,
      "为": 1584,
      "主": 1585,
      "丼": 1586,
      "丽": 1587,
      "举": 1588,
      "久": 1589,
      "么": 1590,
      "义": 1591,
      "之": 1592,
      "乌": 1593,
      "乎": 1594,
      "乏": 1595,
      "乐": 1596,
      "乗": 1597,
      "乘": 1598,
      "乙": 1599,
      "九": 1600,
      "也": 1601,
      "习": 1602,
      "乡": 1603,
      "书": 1604,
      "买": 1605,
      "乱": 1606,
      "乾": 1607,
      "了": 1608,
      "争": 1609,
      "事": 1610,
      "二": 1611,
      "于": 1612,
      "云": 1613,
      "互": 1614,
      "五": 1615,
      "井": 1616,
      "亚": 1617,
      "些": 1618,
      "亜": 1619,
      "亞": 1620,
      "交": 1621,
      "产": 1622,
      "亨": 1623,
      "京": 1624,
      "人": 1625,
      "亿": 1626,
      "什": 1627,
      "仁": 1628,
      "仅": 1629,
      "今": 1630,
      "介": 1631,
      "仍": 1632,
      "从": 1633,
      "他": 1634,
      "付": 1635,
      "仙": 1636,
      "仝": 1637,
      "代": 1638,
      "以": 1639,
      "仪": 1640,
      "们": 1641,
      "仮": 1642,
      "仲": 1643,
      "件": 1644,
      "价": 1645,
      "任": 1646,
      "伊": 1647,
      "伎": 1648,
      "伏": 1649,
      "伐": 1650,
      "休": 1651,
      "众": 1652,
      "优": 1653,
      "会": 1654,
      "伝": 1655,
      "伟": 1656,
      "传": 1657,
      "伦": 1658,
      "伯": 1659,
      "估": 1660,
      "伴": 1661,
      "伸": 1662,
      "似": 1663,
      "但": 1664,
      "位": 1665,
      "低": 1666,
      "住": 1667,
      "佐": 1668,
      "佑": 1669,
      "体": 1670,
      "何": 1671,
      "佗": 1672,
      "余": 1673,
      "作": 1674,
      "你": 1675,
      "佰": 1676,
      "使": 1677,
      "例": 1678,
      "侍": 1679,
      "供": 1680,
      "依": 1681,
      "便": 1682,
      "俄": 1683,
      "俊": 1684,
      "保": 1685,
      "信": 1686,
      "修": 1687,
      "倉": 1688,
      "個": 1689,
      "倍": 1690,
      "倒": 1691,
      "候": 1692,
      "值": 1693,
      "假": 1694,
      "做": 1695,
      "健": 1696,
      "側": 1697,
      "備": 1698,
      "储": 1699,
      "傳": 1700,
      "傷": 1701,
      "働": 1702,
      "像": 1703,
      "僕": 1704,
      "儀": 1705,
      "儉": 1706,
      "元": 1707,
      "先": 1708,
      "光": 1709,
      "克": 1710,
      "免": 1711,
      "入": 1712,
      "內": 1713,
      "全": 1714,
      "兩": 1715,
      "八": 1716,
      "公": 1717,
      "六": 1718,
      "兰": 1719,
      "共": 1720,
      "关": 1721,
      "兴": 1722,
      "兵": 1723,
      "其": 1724,
      "具": 1725,
      "养": 1726,
      "兽": 1727,
      "内": 1728,
      "円": 1729,
      "冊": 1730,
      "册": 1731,
      "再": 1732,
      "写": 1733,
      "军": 1734,
      "农": 1735,
      "冤": 1736,
      "冰": 1737,
      "决": 1738,
      "况": 1739,
      "冷": 1740,
      "净": 1741,
      "凄": 1742,
      "准": 1743,
      "凉": 1744,
      "凍": 1745,
      "减": 1746,
      "几": 1747,
      "凶": 1748,
      "凸": 1749,
      "出": 1750,
      "函": 1751,
      "刀": 1752,
      "分": 1753,
      "切": 1754,
      "刑": 1755,
      "列": 1756,
      "刘": 1757,
      "则": 1758,
      "刚": 1759,
      "创": 1760,
      "判": 1761,
      "別": 1762,
      "刨": 1763,
      "利": 1764,
      "别": 1765,
      "到": 1766,
      "制": 1767,
      "刺": 1768,
      "則": 1769,
      "前": 1770,
      "剑": 1771,
      "剣": 1772,
      "剥": 1773,
      "剧": 1774,
      "剩": 1775,
      "副": 1776,
      "割": 1777,
      "創": 1778,
      "劇": 1779,
      "劉": 1780,
      "力": 1781,
      "功": 1782,
      "加": 1783,
      "务": 1784,
      "动": 1785,
      "助": 1786,
      "努": 1787,
      "劳": 1788,
      "势": 1789,
      "動": 1790,
      "勝": 1791,
      "勞": 1792,
      "勢": 1793,
      "勧": 1794,
      "勿": 1795,
      "包": 1796,
      "化": 1797,
      "北": 1798,
      "匠": 1799,
      "匡": 1800,
      "匹": 1801,
      "区": 1802,
      "医": 1803,
      "匿": 1804,
      "區": 1805,
      "十": 1806,
      "千": 1807,
      "升": 1808,
      "半": 1809,
      "卍": 1810,
      "华": 1811,
      "协": 1812,
      "卐": 1813,
      "卓": 1814,
      "单": 1815,
      "卖": 1816,
      "南": 1817,
      "博": 1818,
      "卡": 1819,
      "卦": 1820,
      "卫": 1821,
      "印": 1822,
      "危": 1823,
      "即": 1824,
      "却": 1825,
      "厂": 1826,
      "原": 1827,
      "去": 1828,
      "县": 1829,
      "参": 1830,
      "參": 1831,
      "及": 1832,
      "友": 1833,
      "双": 1834,
      "反": 1835,
      "发": 1836,
      "取": 1837,
      "受": 1838,
      "变": 1839,
      "叡": 1840,
      "口": 1841,
      "古": 1842,
      "另": 1843,
      "只": 1844,
      "叫": 1845,
      "召": 1846,
      "可": 1847,
      "台": 1848,
      "史": 1849,
      "右": 1850,
      "号": 1851,
      "司": 1852,
      "吃": 1853,
      "各": 1854,
      "合": 1855,
      "吉": 1856,
      "吊": 1857,
      "同": 1858,
      "名": 1859,
      "后": 1860,
      "向": 1861,
      "吗": 1862,
      "君": 1863,
      "否": 1864,
      "吧": 1865,
      "吨": 1866,
      "含": 1867,
      "听": 1868,
      "吳": 1869,
      "吴": 1870,
      "吸": 1871,
      "吹": 1872,
      "吾": 1873,
      "呀": 1874,
      "呂": 1875,
      "呆": 1876,
      "呉": 1877,
      "告": 1878,
      "呑": 1879,
      "员": 1880,
      "周": 1881,
      "味": 1882,
      "呼": 1883,
      "命": 1884,
      "咆": 1885,
      "和": 1886,
      "咬": 1887,
      "品": 1888,
      "哈": 1889,
      "响": 1890,
      "員": 1891,
      "哥": 1892,
      "哮": 1893,
      "哲": 1894,
      "唐": 1895,
      "售": 1896,
      "唸": 1897,
      "商": 1898,
      "問": 1899,
      "啤": 1900,
      "啦": 1901,
      "喀": 1902,
      "喂": 1903,
      "善": 1904,
      "喇": 1905,
      "喜": 1906,
      "喫": 1907,
      "嗣": 1908,
      "嘉": 1909,
      "嘛": 1910,
      "嘟": 1911,
      "噌": 1912,
      "噛": 1913,
      "器": 1914,
      "嚴": 1915,
      "四": 1916,
      "回": 1917,
      "因": 1918,
      "団": 1919,
      "囧": 1920,
      "园": 1921,
      "困": 1922,
      "固": 1923,
      "国": 1924,
      "图": 1925,
      "圆": 1926,
      "國": 1927,
      "圍": 1928,
      "圏": 1929,
      "園": 1930,
      "圓": 1931,
      "圖": 1932,
      "土": 1933,
      "在": 1934,
      "地": 1935,
      "圳": 1936,
      "场": 1937,
      "址": 1938,
      "坂": 1939,
      "均": 1940,
      "坊": 1941,
      "坐": 1942,
      "块": 1943,
      "坛": 1944,
      "坝": 1945,
      "坡": 1946,
      "坤": 1947,
      "坪": 1948,
      "型": 1949,
      "垣": 1950,
      "城": 1951,
      "埔": 1952,
      "域": 1953,
      "基": 1954,
      "堂": 1955,
      "堆": 1956,
      "堤": 1957,
      "堰": 1958,
      "報": 1959,
      "場": 1960,
      "塊": 1961,
      "塔": 1962,
      "塗": 1963,
      "塞": 1964,
      "塩": 1965,
      "塾": 1966,
      "増": 1967,
      "增": 1968,
      "墟": 1969,
      "墩": 1970,
      "壊": 1971,
      "士": 1972,
      "壮": 1973,
      "売": 1974,
      "壳": 1975,
      "壹": 1976,
      "壽": 1977,
      "处": 1978,
      "备": 1979,
      "変": 1980,
      "复": 1981,
      "夏": 1982,
      "夕": 1983,
      "外": 1984,
      "多": 1985,
      "夛": 1986,
      "夜": 1987,
      "够": 1988,
      "夢": 1989,
      "大": 1990,
      "天": 1991,
      "太": 1992,
      "夫": 1993,
      "央": 1994,
      "头": 1995,
      "夷": 1996,
      "夹": 1997,
      "奄": 1998,
      "奇": 1999,
      "奈": 2000,
      "奉": 2001,
      "套": 2002,
      "奘": 2003,
      "奚": 2004,
      "奥": 2005,
      "女": 2006,
      "奶": 2007,
      "奸": 2008,
      "好": 2009,
      "如": 2010,
      "妖": 2011,
      "妤": 2012,
      "妨": 2013,
      "妻": 2014,
      "姆": 2015,
      "始": 2016,
      "委": 2017,
      "姦": 2018,
      "威": 2019,
      "娃": 2020,
      "娄": 2021,
      "娜": 2022,
      "娣": 2023,
      "娥": 2024,
      "娱": 2025,
      "婁": 2026,
      "婦": 2027,
      "婷": 2028,
      "媛": 2029,
      "嫌": 2030,
      "子": 2031,
      "字": 2032,
      "存": 2033,
      "季": 2034,
      "学": 2035,
      "孴": 2036,
      "學": 2037,
      "宁": 2038,
      "它": 2039,
      "宇": 2040,
      "安": 2041,
      "宋": 2042,
      "完": 2043,
      "宏": 2044,
      "宗": 2045,
      "官": 2046,
      "定": 2047,
      "宜": 2048,
      "宝": 2049,
      "实": 2050,
      "実": 2051,
      "客": 2052,
      "宣": 2053,
      "室": 2054,
      "宫": 2055,
      "宮": 2056,
      "宰": 2057,
      "家": 2058,
      "容": 2059,
      "宿": 2060,
      "寄": 2061,
      "密": 2062,
      "富": 2063,
      "寤": 2064,
      "實": 2065,
      "寧": 2066,
      "寨": 2067,
      "寳": 2068,
      "寶": 2069,
      "寸": 2070,
      "对": 2071,
      "寺": 2072,
      "寻": 2073,
      "寿": 2074,
      "専": 2075,
      "将": 2076,
      "小": 2077,
      "少": 2078,
      "尔": 2079,
      "尘": 2080,
      "就": 2081,
      "尽": 2082,
      "尾": 2083,
      "尿": 2084,
      "局": 2085,
      "屄": 2086,
      "居": 2087,
      "屈": 2088,
      "届": 2089,
      "屋": 2090,
      "屏": 2091,
      "展": 2092,
      "属": 2093,
      "屯": 2094,
      "山": 2095,
      "屿": 2096,
      "岐": 2097,
      "岗": 2098,
      "岛": 2099,
      "岡": 2100,
      "岩": 2101,
      "岭": 2102,
      "岳": 2103,
      "岷": 2104,
      "岸": 2105,
      "島": 2106,
      "峻": 2107,
      "峽": 2108,
      "崎": 2109,
      "崔": 2110,
      "崖": 2111,
      "崩": 2112,
      "嵥": 2113,
      "嶺": 2114,
      "嶼": 2115,
      "川": 2116,
      "州": 2117,
      "工": 2118,
      "左": 2119,
      "巧": 2120,
      "巨": 2121,
      "差": 2122,
      "己": 2123,
      "已": 2124,
      "巴": 2125,
      "巻": 2126,
      "市": 2127,
      "布": 2128,
      "师": 2129,
      "希": 2130,
      "帝": 2131,
      "帥": 2132,
      "带": 2133,
      "師": 2134,
      "席": 2135,
      "帯": 2136,
      "常": 2137,
      "幌": 2138,
      "幡": 2139,
      "幣": 2140,
      "干": 2141,
      "平": 2142,
      "年": 2143,
      "并": 2144,
      "幸": 2145,
      "幹": 2146,
      "幾": 2147,
      "广": 2148,
      "庁": 2149,
      "広": 2150,
      "庄": 2151,
      "庆": 2152,
      "序": 2153,
      "库": 2154,
      "应": 2155,
      "底": 2156,
      "店": 2157,
      "庚": 2158,
      "府": 2159,
      "废": 2160,
      "度": 2161,
      "座": 2162,
      "庫": 2163,
      "庭": 2164,
      "康": 2165,
      "廃": 2166,
      "廣": 2167,
      "建": 2168,
      "开": 2169,
      "弁": 2170,
      "异": 2171,
      "弄": 2172,
      "式": 2173,
      "弓": 2174,
      "弔": 2175,
      "引": 2176,
      "张": 2177,
      "弦": 2178,
      "張": 2179,
      "强": 2180,
      "当": 2181,
      "形": 2182,
      "彩": 2183,
      "彭": 2184,
      "彰": 2185,
      "影": 2186,
      "役": 2187,
      "彻": 2188,
      "彼": 2189,
      "征": 2190,
      "待": 2191,
      "很": 2192,
      "律": 2193,
      "後": 2194,
      "徐": 2195,
      "徒": 2196,
      "得": 2197,
      "御": 2198,
      "復": 2199,
      "循": 2200,
      "微": 2201,
      "徳": 2202,
      "德": 2203,
      "徹": 2204,
      "徽": 2205,
      "心": 2206,
      "必": 2207,
      "忆": 2208,
      "忍": 2209,
      "志": 2210,
      "忘": 2211,
      "応": 2212,
      "忠": 2213,
      "快": 2214,
      "念": 2215,
      "忻": 2216,
      "忽": 2217,
      "态": 2218,
      "怒": 2219,
      "思": 2220,
      "怡": 2221,
      "急": 2222,
      "性": 2223,
      "怪": 2224,
      "总": 2225,
      "恋": 2226,
      "恢": 2227,
      "恩": 2228,
      "息": 2229,
      "恵": 2230,
      "悟": 2231,
      "悠": 2232,
      "患": 2233,
      "您": 2234,
      "悩": 2235,
      "悪": 2236,
      "悬": 2237,
      "情": 2238,
      "惑": 2239,
      "惠": 2240,
      "惧": 2241,
      "惯": 2242,
      "想": 2243,
      "意": 2244,
      "愛": 2245,
      "感": 2246,
      "慈": 2247,
      "態": 2248,
      "慎": 2249,
      "慢": 2250,
      "慣": 2251,
      "慶": 2252,
      "憎": 2253,
      "憨": 2254,
      "憩": 2255,
      "憶": 2256,
      "憾": 2257,
      "應": 2258,
      "成": 2259,
      "我": 2260,
      "戒": 2261,
      "或": 2262,
      "战": 2263,
      "截": 2264,
      "戴": 2265,
      "戶": 2266,
      "户": 2267,
      "戸": 2268,
      "戻": 2269,
      "房": 2270,
      "所": 2271,
      "扈": 2272,
      "手": 2273,
      "才": 2274,
      "打": 2275,
      "払": 2276,
      "找": 2277,
      "承": 2278,
      "技": 2279,
      "投": 2280,
      "抗": 2281,
      "折": 2282,
      "抜": 2283,
      "护": 2284,
      "报": 2285,
      "抵": 2286,
      "抹": 2287,
      "押": 2288,
      "担": 2289,
      "拉": 2290,
      "拒": 2291,
      "拓": 2292,
      "招": 2293,
      "拟": 2294,
      "择": 2295,
      "括": 2296,
      "拳": 2297,
      "拼": 2298,
      "拿": 2299,
      "持": 2300,
      "挂": 2301,
      "指": 2302,
      "按": 2303,
      "挑": 2304,
      "挠": 2305,
      "挡": 2306,
      "振": 2307,
      "损": 2308,
      "据": 2309,
      "捷": 2310,
      "掉": 2311,
      "排": 2312,
      "掛": 2313,
      "採": 2314,
      "探": 2315,
      "接": 2316,
      "控": 2317,
      "推": 2318,
      "措": 2319,
      "掻": 2320,
      "揂": 2321,
      "揃": 2322,
      "提": 2323,
      "揚": 2324,
      "換": 2325,
      "握": 2326,
      "援": 2327,
      "搅": 2328,
      "損": 2329,
      "搜": 2330,
      "搞": 2331,
      "携": 2332,
      "摂": 2333,
      "摆": 2334,
      "摇": 2335,
      "摩": 2336,
      "撒": 2337,
      "撤": 2338,
      "撫": 2339,
      "播": 2340,
      "撮": 2341,
      "操": 2342,
      "支": 2343,
      "收": 2344,
      "改": 2345,
      "攻": 2346,
      "放": 2347,
      "政": 2348,
      "故": 2349,
      "效": 2350,
      "敏": 2351,
      "救": 2352,
      "教": 2353,
      "散": 2354,
      "敦": 2355,
      "敬": 2356,
      "数": 2357,
      "整": 2358,
      "文": 2359,
      "斗": 2360,
      "料": 2361,
      "斯": 2362,
      "新": 2363,
      "方": 2364,
      "施": 2365,
      "旅": 2366,
      "旋": 2367,
      "族": 2368,
      "无": 2369,
      "日": 2370,
      "旧": 2371,
      "旨": 2372,
      "旭": 2373,
      "旱": 2374,
      "时": 2375,
      "昇": 2376,
      "昌": 2377,
      "明": 2378,
      "易": 2379,
      "星": 2380,
      "映": 2381,
      "春": 2382,
      "昭": 2383,
      "是": 2384,
      "显": 2385,
      "時": 2386,
      "晏": 2387,
      "晨": 2388,
      "普": 2389,
      "景": 2390,
      "智": 2391,
      "暂": 2392,
      "暨": 2393,
      "暫": 2394,
      "暴": 2395,
      "曌": 2396,
      "曝": 2397,
      "更": 2398,
      "書": 2399,
      "曹": 2400,
      "曾": 2401,
      "最": 2402,
      "會": 2403,
      "月": 2404,
      "有": 2405,
      "服": 2406,
      "朔": 2407,
      "朗": 2408,
      "望": 2409,
      "朝": 2410,
      "期": 2411,
      "木": 2412,
      "未": 2413,
      "末": 2414,
      "本": 2415,
      "札": 2416,
      "术": 2417,
      "朱": 2418,
      "机": 2419,
      "杂": 2420,
      "李": 2421,
      "杏": 2422,
      "材": 2423,
      "村": 2424,
      "束": 2425,
      "条": 2426,
      "来": 2427,
      "杨": 2428,
      "杭": 2429,
      "東": 2430,
      "松": 2431,
      "板": 2432,
      "极": 2433,
      "构": 2434,
      "析": 2435,
      "林": 2436,
      "枚": 2437,
      "果": 2438,
      "枡": 2439,
      "枫": 2440,
      "架": 2441,
      "某": 2442,
      "染": 2443,
      "柔": 2444,
      "查": 2445,
      "柱": 2446,
      "柴": 2447,
      "标": 2448,
      "树": 2449,
      "校": 2450,
      "株": 2451,
      "样": 2452,
      "核": 2453,
      "根": 2454,
      "格": 2455,
      "栽": 2456,
      "桂": 2457,
      "桃": 2458,
      "框": 2459,
      "案": 2460,
      "桓": 2461,
      "桜": 2462,
      "桥": 2463,
      "桩": 2464,
      "桶": 2465,
      "梁": 2466,
      "梅": 2467,
      "梨": 2468,
      "械": 2469,
      "检": 2470,
      "棒": 2471,
      "森": 2472,
      "棲": 2473,
      "椅": 2474,
      "植": 2475,
      "検": 2476,
      "楠": 2477,
      "業": 2478,
      "極": 2479,
      "楼": 2480,
      "楽": 2481,
      "樓": 2482,
      "標": 2483,
      "模": 2484,
      "横": 2485,
      "樱": 2486,
      "樹": 2487,
      "橋": 2488,
      "機": 2489,
      "橿": 2490,
      "檀": 2491,
      "次": 2492,
      "欢": 2493,
      "欧": 2494,
      "款": 2495,
      "歌": 2496,
      "止": 2497,
      "正": 2498,
      "此": 2499,
      "步": 2500,
      "武": 2501,
      "歩": 2502,
      "歳": 2503,
      "歸": 2504,
      "死": 2505,
      "殊": 2506,
      "段": 2507,
      "殷": 2508,
      "殻": 2509,
      "殿": 2510,
      "毁": 2511,
      "母": 2512,
      "毎": 2513,
      "每": 2514,
      "毓": 2515,
      "比": 2516,
      "毛": 2517,
      "氏": 2518,
      "民": 2519,
      "气": 2520,
      "気": 2521,
      "氣": 2522,
      "氧": 2523,
      "氮": 2524,
      "水": 2525,
      "氷": 2526,
      "永": 2527,
      "汁": 2528,
      "求": 2529,
      "汇": 2530,
      "汉": 2531,
      "汕": 2532,
      "江": 2533,
      "池": 2534,
      "汤": 2535,
      "汴": 2536,
      "決": 2537,
      "沈": 2538,
      "沌": 2539,
      "沙": 2540,
      "沛": 2541,
      "没": 2542,
      "沢": 2543,
      "沪": 2544,
      "沱": 2545,
      "河": 2546,
      "油": 2547,
      "治": 2548,
      "沿": 2549,
      "況": 2550,
      "泄": 2551,
      "泉": 2552,
      "泊": 2553,
      "法": 2554,
      "波": 2555,
      "泥": 2556,
      "注": 2557,
      "泰": 2558,
      "泽": 2559,
      "洁": 2560,
      "洋": 2561,
      "洒": 2562,
      "洗": 2563,
      "洛": 2564,
      "洞": 2565,
      "洪": 2566,
      "洲": 2567,
      "活": 2568,
      "派": 2569,
      "流": 2570,
      "浄": 2571,
      "测": 2572,
      "济": 2573,
      "浙": 2574,
      "浜": 2575,
      "浦": 2576,
      "浮": 2577,
      "浴": 2578,
      "海": 2579,
      "涂": 2580,
      "消": 2581,
      "涌": 2582,
      "涩": 2583,
      "淡": 2584,
      "淫": 2585,
      "深": 2586,
      "混": 2587,
      "淹": 2588,
      "清": 2589,
      "済": 2590,
      "渋": 2591,
      "渐": 2592,
      "減": 2593,
      "渝": 2594,
      "渡": 2595,
      "温": 2596,
      "港": 2597,
      "渲": 2598,
      "渴": 2599,
      "游": 2600,
      "湄": 2601,
      "湖": 2602,
      "湘": 2603,
      "湯": 2604,
      "湾": 2605,
      "満": 2606,
      "溉": 2607,
      "源": 2608,
      "溜": 2609,
      "溝": 2610,
      "溢": 2611,
      "溥": 2612,
      "溪": 2613,
      "溫": 2614,
      "溯": 2615,
      "溶": 2616,
      "滇": 2617,
      "滞": 2618,
      "滨": 2619,
      "滬": 2620,
      "漢": 2621,
      "漫": 2622,
      "潜": 2623,
      "潟": 2624,
      "潢": 2625,
      "潭": 2626,
      "潮": 2627,
      "澄": 2628,
      "澎": 2629,
      "澤": 2630,
      "澳": 2631,
      "激": 2632,
      "濟": 2633,
      "濱": 2634,
      "灌": 2635,
      "灣": 2636,
      "火": 2637,
      "灯": 2638,
      "灰": 2639,
      "灾": 2640,
      "炎": 2641,
      "炯": 2642,
      "点": 2643,
      "為": 2644,
      "烈": 2645,
      "烏": 2646,
      "烦": 2647,
      "烧": 2648,
      "热": 2649,
      "無": 2650,
      "焦": 2651,
      "然": 2652,
      "焼": 2653,
      "煙": 2654,
      "照": 2655,
      "煩": 2656,
      "煮": 2657,
      "熊": 2658,
      "熟": 2659,
      "熨": 2660,
      "熱": 2661,
      "燃": 2662,
      "燕": 2663,
      "燗": 2664,
      "爆": 2665,
      "爛": 2666,
      "爪": 2667,
      "爱": 2668,
      "父": 2669,
      "爻": 2670,
      "爾": 2671,
      "片": 2672,
      "版": 2673,
      "牌": 2674,
      "牙": 2675,
      "牛": 2676,
      "物": 2677,
      "特": 2678,
      "状": 2679,
      "狐": 2680,
      "狗": 2681,
      "独": 2682,
      "狭": 2683,
      "猛": 2684,
      "猪": 2685,
      "献": 2686,
      "獄": 2687,
      "獲": 2688,
      "玄": 2689,
      "率": 2690,
      "玉": 2691,
      "王": 2692,
      "环": 2693,
      "现": 2694,
      "玲": 2695,
      "珈": 2696,
      "珍": 2697,
      "珠": 2698,
      "班": 2699,
      "球": 2700,
      "理": 2701,
      "琢": 2702,
      "琲": 2703,
      "瑠": 2704,
      "瑩": 2705,
      "璃": 2706,
      "璐": 2707,
      "環": 2708,
      "瓊": 2709,
      "瓶": 2710,
      "甜": 2711,
      "生": 2712,
      "用": 2713,
      "田": 2714,
      "由": 2715,
      "甲": 2716,
      "申": 2717,
      "电": 2718,
      "男": 2719,
      "甸": 2720,
      "町": 2721,
      "画": 2722,
      "界": 2723,
      "留": 2724,
      "畢": 2725,
      "略": 2726,
      "番": 2727,
      "畿": 2728,
      "疆": 2729,
      "疏": 2730,
      "疑": 2731,
      "疗": 2732,
      "疫": 2733,
      "病": 2734,
      "痛": 2735,
      "痴": 2736,
      "瘤": 2737,
      "癌": 2738,
      "癪": 2739,
      "発": 2740,
      "登": 2741,
      "白": 2742,
      "百": 2743,
      "的": 2744,
      "皇": 2745,
      "皮": 2746,
      "盆": 2747,
      "益": 2748,
      "盐": 2749,
      "监": 2750,
      "盖": 2751,
      "盗": 2752,
      "盛": 2753,
      "監": 2754,
      "盧": 2755,
      "目": 2756,
      "直": 2757,
      "相": 2758,
      "省": 2759,
      "看": 2760,
      "県": 2761,
      "真": 2762,
      "眩": 2763,
      "眼": 2764,
      "着": 2765,
      "睛": 2766,
      "睦": 2767,
      "瞎": 2768,
      "瞳": 2769,
      "瞻": 2770,
      "矢": 2771,
      "知": 2772,
      "短": 2773,
      "石": 2774,
      "矿": 2775,
      "码": 2776,
      "砂": 2777,
      "砕": 2778,
      "破": 2779,
      "硝": 2780,
      "硬": 2781,
      "确": 2782,
      "碁": 2783,
      "碍": 2784,
      "碧": 2785,
      "碳": 2786,
      "確": 2787,
      "磁": 2788,
      "磨": 2789,
      "磷": 2790,
      "礱": 2791,
      "示": 2792,
      "礼": 2793,
      "社": 2794,
      "祖": 2795,
      "祝": 2796,
      "神": 2797,
      "票": 2798,
      "祭": 2799,
      "祸": 2800,
      "祿": 2801,
      "禁": 2802,
      "禅": 2803,
      "福": 2804,
      "禪": 2805,
      "禹": 2806,
      "禽": 2807,
      "秀": 2808,
      "私": 2809,
      "秉": 2810,
      "秋": 2811,
      "种": 2812,
      "科": 2813,
      "租": 2814,
      "秦": 2815,
      "积": 2816,
      "称": 2817,
      "移": 2818,
      "稀": 2819,
      "稅": 2820,
      "程": 2821,
      "税": 2822,
      "稱": 2823,
      "稲": 2824,
      "稳": 2825,
      "稻": 2826,
      "稼": 2827,
      "稿": 2828,
      "穷": 2829,
      "空": 2830,
      "立": 2831,
      "站": 2832,
      "竜": 2833,
      "竞": 2834,
      "章": 2835,
      "端": 2836,
      "競": 2837,
      "竹": 2838,
      "笠": 2839,
      "第": 2840,
      "筆": 2841,
      "等": 2842,
      "筑": 2843,
      "答": 2844,
      "策": 2845,
      "签": 2846,
      "简": 2847,
      "箍": 2848,
      "箕": 2849,
      "管": 2850,
      "箱": 2851,
      "節": 2852,
      "篇": 2853,
      "簡": 2854,
      "米": 2855,
      "类": 2856,
      "粉": 2857,
      "粤": 2858,
      "粮": 2859,
      "粵": 2860,
      "精": 2861,
      "糖": 2862,
      "糸": 2863,
      "系": 2864,
      "紀": 2865,
      "紂": 2866,
      "紅": 2867,
      "紋": 2868,
      "納": 2869,
      "純": 2870,
      "紙": 2871,
      "級": 2872,
      "素": 2873,
      "索": 2874,
      "紧": 2875,
      "細": 2876,
      "紹": 2877,
      "終": 2878,
      "経": 2879,
      "結": 2880,
      "絞": 2881,
      "統": 2882,
      "經": 2883,
      "継": 2884,
      "続": 2885,
      "網": 2886,
      "綺": 2887,
      "総": 2888,
      "線": 2889,
      "縣": 2890,
      "縮": 2891,
      "繁": 2892,
      "織": 2893,
      "红": 2894,
      "约": 2895,
      "级": 2896,
      "纪": 2897,
      "纷": 2898,
      "纸": 2899,
      "纹": 2900,
      "纽": 2901,
      "线": 2902,
      "组": 2903,
      "细": 2904,
      "终": 2905,
      "绍": 2906,
      "经": 2907,
      "绝": 2908,
      "绞": 2909,
      "统": 2910,
      "绪": 2911,
      "续": 2912,
      "维": 2913,
      "缓": 2914,
      "缩": 2915,
      "缺": 2916,
      "网": 2917,
      "罗": 2918,
      "罪": 2919,
      "置": 2920,
      "署": 2921,
      "羅": 2922,
      "美": 2923,
      "群": 2924,
      "義": 2925,
      "羲": 2926,
      "羽": 2927,
      "翁": 2928,
      "習": 2929,
      "翠": 2930,
      "翻": 2931,
      "翼": 2932,
      "耀": 2933,
      "老": 2934,
      "考": 2935,
      "者": 2936,
      "而": 2937,
      "耐": 2938,
      "耕": 2939,
      "耳": 2940,
      "耶": 2941,
      "耸": 2942,
      "联": 2943,
      "聖": 2944,
      "聞": 2945,
      "聼": 2946,
      "肉": 2947,
      "股": 2948,
      "肥": 2949,
      "育": 2950,
      "胁": 2951,
      "背": 2952,
      "胖": 2953,
      "胜": 2954,
      "胞": 2955,
      "胡": 2956,
      "能": 2957,
      "脑": 2958,
      "脖": 2959,
      "脚": 2960,
      "脱": 2961,
      "腔": 2962,
      "腕": 2963,
      "腰": 2964,
      "腹": 2965,
      "腺": 2966,
      "膚": 2967,
      "臂": 2968,
      "臈": 2969,
      "臓": 2970,
      "臘": 2971,
      "臣": 2972,
      "臧": 2973,
      "臨": 2974,
      "自": 2975,
      "至": 2976,
      "致": 2977,
      "臺": 2978,
      "舁": 2979,
      "舅": 2980,
      "興": 2981,
      "舊": 2982,
      "舍": 2983,
      "舐": 2984,
      "舖": 2985,
      "舞": 2986,
      "舣": 2987,
      "舩": 2988,
      "航": 2989,
      "舫": 2990,
      "般": 2991,
      "艮": 2992,
      "良": 2993,
      "色": 2994,
      "艳": 2995,
      "节": 2996,
      "芋": 2997,
      "芝": 2998,
      "芦": 2999,
      "花": 3000,
      "苏": 3001,
      "苑": 3002,
      "若": 3003,
      "英": 3004,
      "茂": 3005,
      "茜": 3006,
      "茨": 3007,
      "茶": 3008,
      "草": 3009,
      "荣": 3010,
      "荷": 3011,
      "莉": 3012,
      "莞": 3013,
      "莨": 3014,
      "莲": 3015,
      "获": 3016,
      "莹": 3017,
      "菜": 3018,
      "菩": 3019,
      "華": 3020,
      "菱": 3021,
      "萄": 3022,
      "营": 3023,
      "萧": 3024,
      "萬": 3025,
      "落": 3026,
      "葉": 3027,
      "著": 3028,
      "葡": 3029,
      "董": 3030,
      "蒋": 3031,
      "蒸": 3032,
      "蓋": 3033,
      "蓟": 3034,
      "蓮": 3035,
      "蔓": 3036,
      "蔚": 3037,
      "蔣": 3038,
      "蕭": 3039,
      "蕴": 3040,
      "薇": 3041,
      "薊": 3042,
      "薔": 3043,
      "薬": 3044,
      "薯": 3045,
      "藍": 3046,
      "藏": 3047,
      "藕": 3048,
      "藤": 3049,
      "蘇": 3050,
      "虑": 3051,
      "號": 3052,
      "虫": 3053,
      "蛋": 3054,
      "蜀": 3055,
      "蝦": 3056,
      "融": 3057,
      "螨": 3058,
      "螳": 3059,
      "螺": 3060,
      "蟲": 3061,
      "血": 3062,
      "衆": 3063,
      "行": 3064,
      "術": 3065,
      "街": 3066,
      "衡": 3067,
      "衣": 3068,
      "表": 3069,
      "裂": 3070,
      "装": 3071,
      "裕": 3072,
      "製": 3073,
      "西": 3074,
      "要": 3075,
      "見": 3076,
      "視": 3077,
      "覧": 3078,
      "親": 3079,
      "観": 3080,
      "覺": 3081,
      "见": 3082,
      "观": 3083,
      "视": 3084,
      "觉": 3085,
      "角": 3086,
      "解": 3087,
      "触": 3088,
      "言": 3089,
      "訃": 3090,
      "訊": 3091,
      "討": 3092,
      "訓": 3093,
      "記": 3094,
      "設": 3095,
      "許": 3096,
      "訳": 3097,
      "詠": 3098,
      "試": 3099,
      "詩": 3100,
      "詰": 3101,
      "話": 3102,
      "詳": 3103,
      "詹": 3104,
      "誓": 3105,
      "語": 3106,
      "說": 3107,
      "説": 3108,
      "読": 3109,
      "調": 3110,
      "談": 3111,
      "請": 3112,
      "論": 3113,
      "諸": 3114,
      "謑": 3115,
      "證": 3116,
      "警": 3117,
      "譯": 3118,
      "護": 3119,
      "讃": 3120,
      "變": 3121,
      "计": 3122,
      "讣": 3123,
      "认": 3124,
      "讨": 3125,
      "让": 3126,
      "议": 3127,
      "讯": 3128,
      "记": 3129,
      "讲": 3130,
      "许": 3131,
      "论": 3132,
      "讼": 3133,
      "设": 3134,
      "证": 3135,
      "评": 3136,
      "识": 3137,
      "诉": 3138,
      "译": 3139,
      "试": 3140,
      "诘": 3141,
      "话": 3142,
      "该": 3143,
      "详": 3144,
      "语": 3145,
      "说": 3146,
      "请": 3147,
      "诺": 3148,
      "课": 3149,
      "调": 3150,
      "谈": 3151,
      "谋": 3152,
      "谢": 3153,
      "谷": 3154,
      "豆": 3155,
      "豊": 3156,
      "豐": 3157,
      "豫": 3158,
      "貌": 3159,
      "負": 3160,
      "財": 3161,
      "貢": 3162,
      "販": 3163,
      "貮": 3164,
      "貰": 3165,
      "貴": 3166,
      "貸": 3167,
      "費": 3168,
      "賀": 3169,
      "資": 3170,
      "賈": 3171,
      "賢": 3172,
      "贊": 3173,
      "贞": 3174,
      "负": 3175,
      "贡": 3176,
      "贤": 3177,
      "货": 3178,
      "质": 3179,
      "贫": 3180,
      "购": 3181,
      "贱": 3182,
      "贳": 3183,
      "贷": 3184,
      "贸": 3185,
      "费": 3186,
      "资": 3187,
      "赌": 3188,
      "赖": 3189,
      "赛": 3190,
      "赞": 3191,
      "赤": 3192,
      "赵": 3193,
      "赶": 3194,
      "起": 3195,
      "超": 3196,
      "越": 3197,
      "趋": 3198,
      "趙": 3199,
      "足": 3200,
      "跆": 3201,
      "跋": 3202,
      "跟": 3203,
      "跨": 3204,
      "路": 3205,
      "跳": 3206,
      "踌": 3207,
      "蹟": 3208,
      "躇": 3209,
      "躊": 3210,
      "躍": 3211,
      "身": 3212,
      "車": 3213,
      "軍": 3214,
      "転": 3215,
      "較": 3216,
      "載": 3217,
      "輪": 3218,
      "车": 3219,
      "转": 3220,
      "轮": 3221,
      "轻": 3222,
      "载": 3223,
      "较": 3224,
      "辑": 3225,
      "辛": 3226,
      "辞": 3227,
      "辭": 3228,
      "辱": 3229,
      "農": 3230,
      "込": 3231,
      "达": 3232,
      "迅": 3233,
      "过": 3234,
      "迎": 3235,
      "运": 3236,
      "近": 3237,
      "返": 3238,
      "还": 3239,
      "这": 3240,
      "进": 3241,
      "远": 3242,
      "连": 3243,
      "迫": 3244,
      "述": 3245,
      "迷": 3246,
      "追": 3247,
      "送": 3248,
      "适": 3249,
      "逃": 3250,
      "逆": 3251,
      "选": 3252,
      "透": 3253,
      "途": 3254,
      "通": 3255,
      "速": 3256,
      "造": 3257,
      "逢": 3258,
      "連": 3259,
      "逸": 3260,
      "遇": 3261,
      "遊": 3262,
      "運": 3263,
      "過": 3264,
      "道": 3265,
      "達": 3266,
      "遗": 3267,
      "遝": 3268,
      "遠": 3269,
      "遣": 3270,
      "適": 3271,
      "遪": 3272,
      "遭": 3273,
      "遲": 3274,
      "遷": 3275,
      "遽": 3276,
      "避": 3277,
      "還": 3278,
      "邊": 3279,
      "邑": 3280,
      "那": 3281,
      "邱": 3282,
      "郎": 3283,
      "郑": 3284,
      "郝": 3285,
      "郡": 3286,
      "部": 3287,
      "郷": 3288,
      "都": 3289,
      "鄂": 3290,
      "鄉": 3291,
      "鄭": 3292,
      "酉": 3293,
      "配": 3294,
      "酎": 3295,
      "酒": 3296,
      "酸": 3297,
      "采": 3298,
      "釉": 3299,
      "里": 3300,
      "重": 3301,
      "野": 3302,
      "量": 3303,
      "金": 3304,
      "釣": 3305,
      "鈍": 3306,
      "鈴": 3307,
      "鉄": 3308,
      "鉋": 3309,
      "銀": 3310,
      "銭": 3311,
      "鋍": 3312,
      "鋑": 3313,
      "鋒": 3314,
      "鋓": 3315,
      "鋖": 3316,
      "鋘": 3317,
      "鋜": 3318,
      "鋝": 3319,
      "鋞": 3320,
      "鋟": 3321,
      "録": 3322,
      "鍋": 3323,
      "鎚": 3324,
      "鏡": 3325,
      "鐵": 3326,
      "针": 3327,
      "钓": 3328,
      "钟": 3329,
      "钢": 3330,
      "钦": 3331,
      "钧": 3332,
      "钱": 3333,
      "铁": 3334,
      "铃": 3335,
      "铭": 3336,
      "银": 3337,
      "链": 3338,
      "销": 3339,
      "锈": 3340,
      "锋": 3341,
      "错": 3342,
      "锦": 3343,
      "键": 3344,
      "镜": 3345,
      "長": 3346,
      "长": 3347,
      "門": 3348,
      "開": 3349,
      "間": 3350,
      "関": 3351,
      "閣": 3352,
      "閥": 3353,
      "閩": 3354,
      "關": 3355,
      "门": 3356,
      "问": 3357,
      "间": 3358,
      "闵": 3359,
      "闻": 3360,
      "闽": 3361,
      "阜": 3362,
      "队": 3363,
      "阪": 3364,
      "防": 3365,
      "阳": 3366,
      "阶": 3367,
      "阻": 3368,
      "阿": 3369,
      "陀": 3370,
      "际": 3371,
      "陈": 3372,
      "降": 3373,
      "限": 3374,
      "院": 3375,
      "除": 3376,
      "险": 3377,
      "陰": 3378,
      "陳": 3379,
      "陵": 3380,
      "陶": 3381,
      "陽": 3382,
      "隆": 3383,
      "隊": 3384,
      "階": 3385,
      "際": 3386,
      "障": 3387,
      "难": 3388,
      "雄": 3389,
      "雅": 3390,
      "集": 3391,
      "雙": 3392,
      "雛": 3393,
      "離": 3394,
      "難": 3395,
      "雨": 3396,
      "雪": 3397,
      "雲": 3398,
      "雷": 3399,
      "電": 3400,
      "需": 3401,
      "霊": 3402,
      "霖": 3403,
      "霜": 3404,
      "露": 3405,
      "青": 3406,
      "静": 3407,
      "非": 3408,
      "靠": 3409,
      "面": 3410,
      "革": 3411,
      "靳": 3412,
      "韓": 3413,
      "音": 3414,
      "韻": 3415,
      "頂": 3416,
      "項": 3417,
      "順": 3418,
      "須": 3419,
      "頑": 3420,
      "領": 3421,
      "頭": 3422,
      "題": 3423,
      "顗": 3424,
      "顯": 3425,
      "页": 3426,
      "顶": 3427,
      "顷": 3428,
      "须": 3429,
      "顾": 3430,
      "预": 3431,
      "颐": 3432,
      "颖": 3433,
      "题": 3434,
      "颜": 3435,
      "额": 3436,
      "風": 3437,
      "风": 3438,
      "飛": 3439,
      "飞": 3440,
      "食": 3441,
      "飯": 3442,
      "飲": 3443,
      "飼": 3444,
      "館": 3445,
      "饮": 3446,
      "饲": 3447,
      "馆": 3448,
      "首": 3449,
      "香": 3450,
      "馬": 3451,
      "駄": 3452,
      "駅": 3453,
      "験": 3454,
      "騙": 3455,
      "騜": 3456,
      "驗": 3457,
      "马": 3458,
      "验": 3459,
      "骨": 3460,
      "髄": 3461,
      "體": 3462,
      "高": 3463,
      "鬼": 3464,
      "魔": 3465,
      "鮨": 3466,
      "鮮": 3467,
      "鯨": 3468,
      "鰀": 3469,
      "鰃": 3470,
      "鰄": 3471,
      "鰈": 3472,
      "鰊": 3473,
      "鰎": 3474,
      "鱲": 3475,
      "鱼": 3476,
      "鲁": 3477,
      "鲞": 3478,
      "鳩": 3479,
      "鳳": 3480,
      "鴻": 3481,
      "鵜": 3482,
      "鷹": 3483,
      "鸡": 3484,
      "鸭": 3485,
      "鸯": 3486,
      "鸳": 3487,
      "鹅": 3488,
      "鹈": 3489,
      "鹤": 3490,
      "鹿": 3491,
      "麗": 3492,
      "麩": 3493,
      "麺": 3494,
      "黃": 3495,
      "黄": 3496,
      "黎": 3497,
      "黒": 3498,
      "黚": 3499,
      "點": 3500,
      "黡": 3501,
      "黨": 3502,
      "黮": 3503,
      "黵": 3504,
      "黷": 3505,
      "鼻": 3506,
      "齋": 3507,
      "齡": 3508,
      "龍": 3509,
      "龙": 3510,
      "검": 3511,
      "겜": 3512,
      "경": 3513,
      "계": 3514,
      "고": 3515,
      "곡": 3516,
      "구": 3517,
      "국": 3518,
      "군": 3519,
      "권": 3520,
      "글": 3521,
      "김": 3522,
      "뀌": 3523,
      "나": 3524,
      "널": 3525,
      "녀": 3526,
      "년": 3527,
      "노": 3528,
      "누": 3529,
      "는": 3530,
      "니": 3531,
      "닌": 3532,
      "님": 3533,
      "다": 3534,
      "단": 3535,
      "당": 3536,
      "대": 3537,
      "도": 3538,
      "돌": 3539,
      "동": 3540,
      "드": 3541,
      "디": 3542,
      "딘": 3543,
      "딩": 3544,
      "라": 3545,
      "레": 3546,
      "려": 3547,
      "령": 3548,
      "로": 3549,
      "루": 3550,
      "류": 3551,
      "르": 3552,
      "린": 3553,
      "마": 3554,
      "막": 3555,
      "맨": 3556,
      "면": 3557,
      "목": 3558,
      "무": 3559,
      "문": 3560,
      "미": 3561,
      "바": 3562,
      "박": 3563,
      "반": 3564,
      "백": 3565,
      "뱅": 3566,
      "번": 3567,
      "벌": 3568,
      "법": 3569,
      "베": 3570,
      "변": 3571,
      "별": 3572,
      "보": 3573,
      "블": 3574,
      "비": 3575,
      "빅": 3576,
      "빌": 3577,
      "빛": 3578,
      "사": 3579,
      "산": 3580,
      "서": 3581,
      "선": 3582,
      "성": 3583,
      "세": 3584,
      "셀": 3585,
      "셔": 3586,
      "셜": 3587,
      "소": 3588,
      "수": 3589,
      "스": 3590,
      "습": 3591,
      "승": 3592,
      "시": 3593,
      "신": 3594,
      "싱": 3595,
      "아": 3596,
      "알": 3597,
      "압": 3598,
      "야": 3599,
      "양": 3600,
      "어": 3601,
      "었": 3602,
      "에": 3603,
      "엘": 3604,
      "엠": 3605,
      "영": 3606,
      "오": 3607,
      "왕": 3608,
      "요": 3609,
      "울": 3610,
      "웅": 3611,
      "워": 3612,
      "월": 3613,
      "웨": 3614,
      "위": 3615,
      "유": 3616,
      "율": 3617,
      "으": 3618,
      "을": 3619,
      "읍": 3620,
      "이": 3621,
      "인": 3622,
      "일": 3623,
      "자": 3624,
      "작": 3625,
      "적": 3626,
      "전": 3627,
      "정": 3628,
      "제": 3629,
      "조": 3630,
      "존": 3631,
      "종": 3632,
      "주": 3633,
      "지": 3634,
      "짝": 3635,
      "창": 3636,
      "천": 3637,
      "체": 3638,
      "추": 3639,
      "충": 3640,
      "층": 3641,
      "치": 3642,
      "클": 3643,
      "키": 3644,
      "킨": 3645,
      "태": 3646,
      "터": 3647,
      "턴": 3648,
      "톨": 3649,
      "퇴": 3650,
      "트": 3651,
      "티": 3652,
      "퍼": 3653,
      "폐": 3654,
      "피": 3655,
      "한": 3656,
      "향": 3657,
      "호": 3658,
      "환": 3659,
      "회": 3660,
      "훈": 3661,
      "": 3662,
      "": 3663,
      "": 3664,
      "": 3665,
      "": 3666,
      "": 3667,
      "": 3668,
      "": 3669,
      "": 3670,
      "": 3671,
      "": 3672,
      "": 3673,
      "": 3674,
      "": 3675,
      "": 3676,
      "": 3677,
      "": 3678,
      "": 3679,
      "": 3680,
      "": 3681,
      "": 3682,
      "": 3683,
      "": 3684,
      "": 3685,
      "": 3686,
      "": 3687,
      "": 3688,
      "": 3689,
      "金": 3690,
      "ﬁ": 3691,
      "ﬂ": 3692,
      "ﷲ": 3693,
      "︰": 3694,
      "ﺍ": 3695,
      "ﺏ": 3696,
      "ﺤ": 3697,
      "ﺩ": 3698,
      "ﻁ": 3699,
      "ﻙ": 3700,
      "ﻫ": 3701,
      "﻿": 3702,
      "！": 3703,
      "＄": 3704,
      "（": 3705,
      "）": 3706,
      "＊": 3707,
      "，": 3708,
      "－": 3709,
      "．": 3710,
      "１": 3711,
      "２": 3712,
      "７": 3713,
      "９": 3714,
      "：": 3715,
      "；": 3716,
      "？": 3717,
      "Ｉ": 3718,
      "Ｐ": 3719,
      "Ｓ": 3720,
      "Ｖ": 3721,
      "［": 3722,
      "］": 3723,
      "ｂ": 3724,
      "ｄ": 3725,
      "ｅ": 3726,
      "ｈ": 3727,
      "ｌ": 3728,
      "ｏ": 3729,
      "ｓ": 3730,
      "ｔ": 3731,
      "ｕ": 3732,
      "､": 3733,
      "･": 3734,
      "ｫ": 3735,
      "ｲ": 3736,
      "ｻ": 3737,
      "ｿ": 3738,
      "ﾜ": 3739,
      "ﾟ": 3740,
      "￠": 3741,
      "￡": 3742,
      "￥": 3743,
      "￼": 3744,
      "�": 3745,
      "𐌰": 3746,
      "𐌴": 3747,
      "𐌸": 3748,
      "𐌼": 3749,
      "𐌽": 3750,
      "𐍃": 3751,
      "𐍉": 3752,
      "𠐄": 3753,
      "𢥲": 3754,
      "𧵮": 3755,
      "𲠄": 3756,
      "𲠤": 3757,
      "򮬩": 3758,
      "򮮥": 3759,
      "򲤥": 3760,
      "򲵮": 3761,
      "򴩧": 3762,
      "en": 3763,
      "er": 3764,
      "in": 3765,
      "ch": 3766,
      "th": 3767,
      "an": 3768,
      "es": 3769,
      "on": 3770,
      "un": 3771,
      "is": 3772,
      "at": 3773,
      "it": 3774,
      "ie": 3775,
      "or": 3776,
      "al": 3777,
      "the": 3778,
      "ar": 3779,
      "st": 3780,
      "re": 3781,
      "der": 3782,
      "ich": 3783,
      "as": 3784,
      "ion": 3785,
      "ur": 3786,
      "le": 3787,
      "and": 3788,
      "te": 3789,
      "of": 3790,
      "ein": 3791,
      "ge": 3792,
      "to": 3793,
      "ent": 3794,
      "de": 3795,
      "be": 3796,
      "au": 3797,
      "und": 3798,
      "om": 3799,
      "ung": 3800,
      "ing": 3801,
      "die": 3802,
      "ro": 3803,
      "el": 3804,
      "den": 3805,
      "il": 3806,
      "ig": 3807,
      "ic": 3808,
      "ed": 3809,
      "ol": 3810,
      "am": 3811,
      "ir": 3812,
      "us": 3813,
      "im": 3814,
      "ter": 3815,
      "ver": 3816,
      "for": 3817,
      "ten": 3818,
      "sch": 3819,
      "se": 3820,
      "ation": 3821,
      "zu": 3822,
      "op": 3823,
      "he": 3824,
      "ab": 3825,
      "ut": 3826,
      "ra": 3827,
      "we": 3828,
      "hr": 3829,
      "ies": 3830,
      "ist": 3831,
      "em": 3832,
      "ul": 3833,
      "ct": 3834,
      "ne": 3835,
      "ber": 3836,
      "gen": 3837,
      "lich": 3838,
      "ve": 3839,
      "all": 3840,
      "um": 3841,
      "ür": 3842,
      "no": 3843,
      "isch": 3844,
      "ier": 3845,
      "icht": 3846,
      "das": 3847,
      "pro": 3848,
      "ke": 3849,
      "that": 3850,
      "est": 3851,
      "so": 3852,
      "con": 3853,
      "ach": 3854,
      "ess": 3855,
      "omm": 3856,
      "von": 3857,
      "sp": 3858,
      "ce": 3859,
      "auf": 3860,
      "ad": 3861,
      "are": 3862,
      "wh": 3863,
      "id": 3864,
      "wir": 3865,
      "ere": 3866,
      "lo": 3867,
      "et": 3868,
      "In": 3869,
      "ith": 3870,
      "mit": 3871,
      "la": 3872,
      "our": 3873,
      "ly": 3874,
      "für": 3875,
      "wer": 3876,
      "kt": 3877,
      "des": 3878,
      "if": 3879,
      "ort": 3880,
      "with": 3881,
      "eine": 3882,
      "ind": 3883,
      "urop": 3884,
      "The": 3885,
      "tr": 3886,
      "pr": 3887,
      "su": 3888,
      "ha": 3889,
      "aus": 3890,
      "ou": 3891,
      "ill": 3892,
      "dem": 3893,
      "Ver": 3894,
      "iv": 3895,
      "dies": 3896,
      "ts": 3897,
      "ho": 3898,
      "me": 3899,
      "ta": 3900,
      "ck": 3901,
      "ment": 3902,
      "Europ": 3903,
      "po": 3904,
      "af": 3905,
      "ma": 3906,
      "ell": 3907,
      "men": 3908,
      "ate": 3909,
      "ex": 3910,
      "gr": 3911,
      "fr": 3912,
      "ges": 3913,
      "qu": 3914,
      "co": 3915,
      "iss": 3916,
      "da": 3917,
      "ungen": 3918,
      "Un": 3919,
      "nen": 3920,
      "ben": 3921,
      "com": 3922,
      "00": 3923,
      "ischen": 3924,
      "tel": 3925,
      "ien": 3926,
      "art": 3927,
      "ze": 3928,
      "res": 3929,
      "this": 3930,
      "not": 3931,
      "ity": 3932,
      "ers": 3933,
      "An": 3934,
      "ust": 3935,
      "sich": 3936,
      "ive": 3937,
      "St": 3938,
      "Sie": 3939,
      "nicht": 3940,
      "ant": 3941,
      "end": 3942,
      "Re": 3943,
      "über": 3944,
      "by": 3945,
      "ap": 3946,
      "ag": 3947,
      "ib": 3948,
      "ser": 3949,
      "än": 3950,
      "werden": 3951,
      "ial": 3952,
      "ah": 3953,
      "auch": 3954,
      "li": 3955,
      "sen": 3956,
      "lie": 3957,
      "ann": 3958,
      "mo": 3959,
      "fa": 3960,
      "wor": 3961,
      "iel": 3962,
      "dass": 3963,
      "have": 3964,
      "port": 3965,
      "pe": 3966,
      "igen": 3967,
      "wo": 3968,
      "igh": 3969,
      "vor": 3970,
      "its": 3971,
      "Die": 3972,
      "Be": 3973,
      "you": 3974,
      "will": 3975,
      "fe": 3976,
      "uld": 3977,
      "was": 3978,
      "man": 3979,
      "ik": 3980,
      "ern": 3981,
      "ay": 3982,
      "als": 3983,
      "ac": 3984,
      "du": 3985,
      "tz": 3986,
      "wie": 3987,
      "hen": 3988,
      "do": 3989,
      "per": 3990,
      "ions": 3991,
      "which": 3992,
      "tra": 3993,
      "Sch": 3994,
      "ommiss": 3995,
      "hal": 3996,
      "ted": 3997,
      "Europe": 3998,
      "ungs": 3999,
      "Th": 4000,
      "ste": 4001,
      "from": 4002,
      "up": 4003,
      "We": 4004,
      "ther": 4005,
      "has": 4006,
      "form": 4007,
      "str": 4008,
      "oll": 4009,
      "out": 4010,
      "fer": 4011,
      "Pro": 4012,
      "sind": 4013,
      "age": 4014,
      "can": 4015,
      "schaf": 4016,
      "ip": 4017,
      "einer": 4018,
      "sit": 4019,
      "En": 4020,
      "war": 4021,
      "imm": 4022,
      "ommission": 4023,
      "able": 4024,
      "ident": 4025,
      "one": 4026,
      "..": 4027,
      "ug": 4028,
      "inter": 4029,
      "fen": 4030,
      "wird": 4031,
      "fü": 4032,
      "bei": 4033,
      "hat": 4034,
      "ine": 4035,
      "ure": 4036,
      "je": 4037,
      "ide": 4038,
      "ön": 4039,
      "uss": 4040,
      "Er": 4041,
      "aben": 4042,
      "einen": 4043,
      "ang": 4044,
      "Par": 4045,
      "ische": 4046,
      "io": 4047,
      "Ho": 4048,
      "her": 4049,
      "Ar": 4050,
      "ft": 4051,
      "iz": 4052,
      "pl": 4053,
      "fin": 4054,
      "oder": 4055,
      "urch": 4056,
      "bes": 4057,
      "ise": 4058,
      "br": 4059,
      "Au": 4060,
      "enn": 4061,
      "go": 4062,
      "ire": 4063,
      "ger": 4064,
      "ick": 4065,
      "bo": 4066,
      "unter": 4067,
      "iten": 4068,
      "ia": 4069,
      "ass": 4070,
      "200": 4071,
      "pol": 4072,
      "zur": 4073,
      "hren": 4074,
      "ige": 4075,
      "ore": 4076,
      "ament": 4077,
      "sie": 4078,
      "European": 4079,
      "ations": 4080,
      "haben": 4081,
      "Mit": 4082,
      "Her": 4083,
      "also": 4084,
      "cl": 4085,
      "ard": 4086,
      "ally": 4087,
      "Aus": 4088,
      "Pr": 4089,
      "part": 4090,
      "Fr": 4091,
      "Al": 4092,
      "ction": 4093,
      "comp": 4094,
      "uns": 4095,
      "lichen": 4096,
      "chen": 4097,
      "ult": 4098,
      "dr": 4099,
      "Ein": 4100,
      "ice": 4101,
      "ational": 4102,
      "ated": 4103,
      "ok": 4104,
      "ät": 4105,
      "che": 4106,
      "kön": 4107,
      "ank": 4108,
      "spe": 4109,
      "very": 4110,
      "nach": 4111,
      "dern": 4112,
      "gan": 4113,
      "od": 4114,
      "mö": 4115,
      "ange": 4116,
      "reg": 4117,
      "aten": 4118,
      "sten": 4119,
      "Ge": 4120,
      "ss": 4121,
      "hl": 4122,
      "cht": 4123,
      "Wir": 4124,
      "sho": 4125,
      "schaft": 4126,
      "ans": 4127,
      "og": 4128,
      "ff": 4129,
      "ieren": 4130,
      "alle": 4131,
      "gro": 4132,
      "ob": 4133,
      "Se": 4134,
      "rit": 4135,
      "wn": 4136,
      "ht": 4137,
      "ish": 4138,
      "stell": 4139,
      "ear": 4140,
      "sh": 4141,
      "är": 4142,
      "vel": 4143,
      "ue": 4144,
      "weit": 4145,
      "ight": 4146,
      "work": 4147,
      "ble": 4148,
      "your": 4149,
      "cess": 4150,
      "Das": 4151,
      "iert": 4152,
      "Union": 4153,
      "einem": 4154,
      "ates": 4155,
      "durch": 4156,
      "ander": 4157,
      "leg": 4158,
      "wur": 4159,
      "kann": 4160,
      "yst": 4161,
      "pt": 4162,
      "19": 4163,
      "ord": 4164,
      "ub": 4165,
      "dar": 4166,
      "tet": 4167,
      "hin": 4168,
      "comm": 4169,
      "elt": 4170,
      "Gr": 4171,
      "keit": 4172,
      "ign": 4173,
      "ün": 4174,
      "ast": 4175,
      "use": 4176,
      "tim": 4177,
      "but": 4178,
      "national": 4179,
      "It": 4180,
      "cre": 4181,
      "Vor": 4182,
      "ember": 4183,
      "coun": 4184,
      "ical": 4185,
      "ystem": 4186,
      "ame": 4187,
      "Ber": 4188,
      "ot": 4189,
      "Ich": 4190,
      "fre": 4191,
      "ite": 4192,
      "ome": 4193,
      "ak": 4194,
      "fol": 4195,
      "können": 4196,
      "there": 4197,
      "äs": 4198,
      "ance": 4199,
      "liche": 4200,
      "EU": 4201,
      "Mr": 4202,
      "more": 4203,
      "ary": 4204,
      "pre": 4205,
      "ud": 4206,
      "ih": 4207,
      "Commission": 4208,
      "ör": 4209,
      "beit": 4210,
      "mar": 4211,
      "Le": 4212,
      "Herr": 4213,
      "ple": 4214,
      "pla": 4215,
      "ommen": 4216,
      "land": 4217,
      "ain": 4218,
      "Ab": 4219,
      "lt": 4220,
      "ahr": 4221,
      "zum": 4222,
      "would": 4223,
      "ssen": 4224,
      "lin": 4225,
      "par": 4226,
      "been": 4227,
      "their": 4228,
      "ese": 4229,
      "any": 4230,
      "ition": 4231,
      "min": 4232,
      "cial": 4233,
      "heit": 4234,
      "tre": 4235,
      "ile": 4236,
      "bar": 4237,
      "dis": 4238,
      "chte": 4239,
      "Ent": 4240,
      "av": 4241,
      "ins": 4242,
      "zen": 4243,
      "glich": 4244,
      "other": 4245,
      "De": 4246,
      "Ges": 4247,
      "sel": 4248,
      "Europä": 4249,
      "uch": 4250,
      "wä": 4251,
      "now": 4252,
      "This": 4253,
      "ong": 4254,
      "mer": 4255,
      "ens": 4256,
      "ute": 4257,
      "way": 4258,
      "chn": 4259,
      "nur": 4260,
      "diese": 4261,
      "produ": 4262,
      "Hotel": 4263,
      "Unter": 4264,
      "hand": 4265,
      "ents": 4266,
      "prov": 4267,
      "gel": 4268,
      "cr": 4269,
      "ken": 4270,
      "neh": 4271,
      "act": 4272,
      "ian": 4273,
      "polit": 4274,
      "Der": 4275,
      "new": 4276,
      "should": 4277,
      "ase": 4278,
      "reich": 4279,
      "gt": 4280,
      "ner": 4281,
      "ück": 4282,
      "Pres": 4283,
      "vie": 4284,
      "net": 4285,
      "Sp": 4286,
      "For": 4287,
      "Kon": 4288,
      "under": 4289,
      "unser": 4290,
      "ful": 4291,
      "ll": 4292,
      "who": 4293,
      "ater": 4294,
      "ev": 4295,
      "teil": 4296,
      "cent": 4297,
      "gram": 4298,
      "ution": 4299,
      "sol": 4300,
      "noch": 4301,
      "ierung": 4302,
      "stand": 4303,
      "mü": 4304,
      "bet": 4305,
      "soll": 4306,
      "Co": 4307,
      "Ih": 4308,
      "etz": 4309,
      "äsident": 4310,
      "dieser": 4311,
      "Te": 4312,
      "kon": 4313,
      "bere": 4314,
      "Es": 4315,
      "ktion": 4316,
      "countr": 4317,
      "tro": 4318,
      "ahl": 4319,
      "ded": 4320,
      "ds": 4321,
      "must": 4322,
      "20": 4323,
      "Dies": 4324,
      "ces": 4325,
      "...": 4326,
      "mehr": 4327,
      "day": 4328,
      "Kommission": 4329,
      "daß": 4330,
      "geb": 4331,
      "ely": 4332,
      "kl": 4333,
      "ings": 4334,
      "off": 4335,
      "formation": 4336,
      "Inter": 4337,
      "over": 4338,
      "ty": 4339,
      "they": 4340,
      "gem": 4341,
      "ities": 4342,
      "aber": 4343,
      "schen": 4344,
      "sta": 4345,
      "ual": 4346,
      "serv": 4347,
      "year": 4348,
      "fl": 4349,
      "immer": 4350,
      "like": 4351,
      "time": 4352,
      "gre": 4353,
      "sein": 4354,
      "only": 4355,
      "wurde": 4356,
      "ments": 4357,
      "fore": 4358,
      "cur": 4359,
      "anz": 4360,
      "os": 4361,
      "sup": 4362,
      "President": 4363,
      "ßen": 4364,
      "utz": 4365,
      "get": 4366,
      "Ma": 4367,
      "Auf": 4368,
      "wick": 4369,
      "Um": 4370,
      "hn": 4371,
      "gegen": 4372,
      "ks": 4373,
      "leich": 4374,
      "Mar": 4375,
      "about": 4376,
      "glie": 4377,
      "wenn": 4378,
      "10": 4379,
      "Präsident": 4380,
      "ef": 4381,
      "nah": 4382,
      "Reg": 4383,
      "system": 4384,
      "olle": 4385,
      "pres": 4386,
      "Ze": 4387,
      "ack": 4388,
      "cts": 4389,
      "olog": 4390,
      "kommen": 4391,
      "alt": 4392,
      "assen": 4393,
      "ild": 4394,
      "fo": 4395,
      "gesch": 4396,
      "fir": 4397,
      "ible": 4398,
      "stat": 4399,
      "zw": 4400,
      "bie": 4401,
      "ced": 4402,
      "pos": 4403,
      "tain": 4404,
      "nis": 4405,
      "sehr": 4406,
      "ious": 4407,
      "some": 4408,
      "cil": 4409,
      ").": 4410,
      "velop": 4411,
      "müssen": 4412,
      "need": 4413,
      "Fra": 4414,
      "ws": 4415,
      "nehmen": 4416,
      "cy": 4417,
      "ms": 4418,
      "lament": 4419,
      "führ": 4420,
      "bis": 4421,
      "cons": 4422,
      "gu": 4423,
      "Mitglie": 4424,
      "erson": 4425,
      "ative": 4426,
      "ors": 4427,
      "ied": 4428,
      "vers": 4429,
      "dire": 4430,
      "king": 4431,
      "det": 4432,
      "these": 4433,
      "liament": 4434,
      "ität": 4435,
      "ause": 4436,
      "sa": 4437,
      "onder": 4438,
      "ütz": 4439,
      "Parlament": 4440,
      "ammen": 4441,
      "wen": 4442,
      "ld": 4443,
      "ket": 4444,
      "mat": 4445,
      "such": 4446,
      "tern": 4447,
      "Bes": 4448,
      "best": 4449,
      "ular": 4450,
      "Member": 4451,
      "Men": 4452,
      "import": 4453,
      "ustr": 4454,
      "ph": 4455,
      "ibt": 4456,
      "eines": 4457,
      "lung": 4458,
      "setz": 4459,
      "usammen": 4460,
      "atz": 4461,
      "dif": 4462,
      "stit": 4463,
      "most": 4464,
      "weiter": 4465,
      "diesem": 4466,
      "develop": 4467,
      "iger": 4468,
      "int": 4469,
      "room": 4470,
      "dam": 4471,
      "ople": 4472,
      "igkeit": 4473,
      "my": 4474,
      "well": 4475,
      "ider": 4476,
      "ility": 4477,
      "igt": 4478,
      "ures": 4479,
      "Ne": 4480,
      "kte": 4481,
      "many": 4482,
      "vo": 4483,
      "ific": 4484,
      "report": 4485,
      "entr": 4486,
      "sub": 4487,
      "posit": 4488,
      "ihre": 4489,
      "ons": 4490,
      "low": 4491,
      "erg": 4492,
      "Europäischen": 4493,
      "änd": 4494,
      "mal": 4495,
      "unden": 4496,
      "halten": 4497,
      "gest": 4498,
      "into": 4499,
      "So": 4500,
      "tho": 4501,
      "iven": 4502,
      "sche": 4503,
      "were": 4504,
      "Parliament": 4505,
      "cle": 4506,
      "viel": 4507,
      "lä": 4508,
      "ateg": 4509,
      "wicht": 4510,
      "them": 4511,
      "oper": 4512,
      "les": 4513,
      "come": 4514,
      "ctive": 4515,
      "lic": 4516,
      "ient": 4517,
      "bas": 4518,
      "geben": 4519,
      "rel": 4520,
      "ating": 4521,
      "people": 4522,
      "vis": 4523,
      "mon": 4524,
      "Or": 4525,
      "uß": 4526,
      "Im": 4527,
      "wel": 4528,
      "ihr": 4529,
      "amen": 4530,
      "what": 4531,
      "pf": 4532,
      "ism": 4533,
      "hotel": 4534,
      "Jahr": 4535,
      "zeit": 4536,
      "dition": 4537,
      "just": 4538,
      "pub": 4539,
      "neu": 4540,
      "ices": 4541,
      "iden": 4542,
      "hel": 4543,
      "gl": 4544,
      "arbeit": 4545,
      "bal": 4546,
      "Ch": 4547,
      "),": 4548,
      "Me": 4549,
      "stru": 4550,
      "As": 4551,
      "pen": 4552,
      "möchte": 4553,
      "Zeit": 4554,
      "bre": 4555,
      "international": 4556,
      "cause": 4557,
      "mach": 4558,
      "por": 4559,
      "inv": 4560,
      "loc": 4561,
      "conom": 4562,
      "isten": 4563,
      "techn": 4564,
      "than": 4565,
      "Über": 4566,
      "hol": 4567,
      "hier": 4568,
      "Mitglied": 4569,
      "high": 4570,
      "ement": 4571,
      "States": 4572,
      "ats": 4573,
      "Tr": 4574,
      "incl": 4575,
      "eing": 4576,
      "ail": 4577,
      "order": 4578,
      "ansp": 4579,
      "led": 4580,
      "Ger": 4581,
      "xt": 4582,
      "Coun": 4583,
      "first": 4584,
      "itte": 4585,
      "son": 4586,
      "dec": 4587,
      "uropä": 4588,
      "when": 4589,
      "Nach": 4590,
      "och": 4591,
      "his": 4592,
      "countries": 4593,
      "ory": 4594,
      "ert": 4595,
      "vom": 4596,
      "ler": 4597,
      "gleich": 4598,
      "ale": 4599,
      "fä": 4600,
      "qual": 4601,
      "roug": 4602,
      "stellen": 4603,
      "US": 4604,
      "Con": 4605,
      "Frau": 4606,
      "partic": 4607,
      "ieden": 4608,
      "oc": 4609,
      "read": 4610,
      "sicht": 4611,
      "Bericht": 4612,
      "ru": 4613,
      "Str": 4614,
      "ele": 4615,
      "ster": 4616,
      "program": 4617,
      "Menschen": 4618,
      "legen": 4619,
      "Council": 4620,
      "pa": 4621,
      "polic": 4622,
      "allen": 4623,
      "essen": 4624,
      "wend": 4625,
      "Land": 4626,
      "own": 4627,
      "cont": 4628,
      "sowie": 4629,
      "econom": 4630,
      "europä": 4631,
      "poss": 4632,
      "where": 4633,
      "richt": 4634,
      "gibt": 4635,
      "bu": 4636,
      "He": 4637,
      "support": 4638,
      "gar": 4639,
      "again": 4640,
      "zwischen": 4641,
      "enz": 4642,
      "etzt": 4643,
      "gew": 4644,
      "oft": 4645,
      "Comm": 4646,
      "here": 4647,
      "Fre": 4648,
      "änder": 4649,
      "make": 4650,
      "stütz": 4651,
      "important": 4652,
      "zwe": 4653,
      "dieses": 4654,
      "inn": 4655,
      "deut": 4656,
      "press": 4657,
      "ween": 4658,
      "agre": 4659,
      "erv": 4660,
      "cour": 4661,
      "ence": 4662,
      "vent": 4663,
      "arge": 4664,
      "tschaft": 4665,
      "besonder": 4666,
      "hör": 4667,
      "halb": 4668,
      "Pol": 4669,
      "bed": 4670,
      "ließ": 4671,
      "gh": 4672,
      "thing": 4673,
      "between": 4674,
      "ights": 4675,
      "fact": 4676,
      "take": 4677,
      "quest": 4678,
      "fort": 4679,
      "istr": 4680,
      "bin": 4681,
      "set": 4682,
      "main": 4683,
      "ives": 4684,
      "halt": 4685,
      "propos": 4686,
      "möglich": 4687,
      "Entwick": 4688,
      "issen": 4689,
      "Zu": 4690,
      "oh": 4691,
      "ware": 4692,
      "because": 4693,
      "Mitgliedsta": 4694,
      "ci": 4695,
      "ural": 4696,
      "arr": 4697,
      "igung": 4698,
      "world": 4699,
      "fra": 4700,
      "proble": 4701,
      "ject": 4702,
      "see": 4703,
      "forder": 4704,
      "Fl": 4705,
      "Bere": 4706,
      "ister": 4707,
      "information": 4708,
      "199": 4709,
      "bst": 4710,
      "ital": 4711,
      "No": 4712,
      "emp": 4713,
      "line": 4714,
      "ict": 4715,
      "muss": 4716,
      "Produ": 4717,
      "Art": 4718,
      "nat": 4719,
      "two": 4720,
      "äch": 4721,
      "organ": 4722,
      "zial": 4723,
      "tem": 4724,
      "ous": 4725,
      "cted": 4726,
      "ßer": 4727,
      "Min": 4728,
      "zie": 4729,
      "eng": 4730,
      "good": 4731,
      "els": 4732,
      "made": 4733,
      "unsere": 4734,
      "same": 4735,
      "keine": 4736,
      "Br": 4737,
      "wür": 4738,
      "trag": 4739,
      "wa": 4740,
      "ko": 4741,
      "ionen": 4742,
      "bl": 4743,
      "Ex": 4744,
      "versch": 4745,
      "Ihre": 4746,
      "aut": 4747,
      "sc": 4748,
      "uation": 4749,
      "right": 4750,
      "lang": 4751,
      "finden": 4752,
      "had": 4753,
      "Fin": 4754,
      "Ihnen": 4755,
      "even": 4756,
      "every": 4757,
      "hä": 4758,
      "dit": 4759,
      "Arbeit": 4760,
      "voll": 4761,
      "years": 4762,
      "Grund": 4763,
      "öff": 4764,
      "Mitgliedstaaten": 4765,
      "throug": 4766,
      "issu": 4767,
      "ional": 4768,
      "If": 4769,
      "real": 4770,
      "anderen": 4771,
      "akt": 4772,
      "uring": 4773,
      "amil": 4774,
      "jed": 4775,
      "urn": 4776,
      "Europa": 4777,
      "ium": 4778,
      "bring": 4779,
      "ys": 4780,
      "resp": 4781,
      "bus": 4782,
      "ße": 4783,
      "num": 4784,
      "rat": 4785,
      "being": 4786,
      "then": 4787,
      "del": 4788,
      "unkt": 4789,
      "ting": 4790,
      "med": 4791,
      "ink": 4792,
      "Mon": 4793,
      "15": 4794,
      "icher": 4795,
      "Zusammen": 4796,
      "those": 4797,
      "ischer": 4798,
      "Kr": 4799,
      "cept": 4800,
      "Pl": 4801,
      "lag": 4802,
      "To": 4803,
      "jo": 4804,
      "rest": 4805,
      "public": 4806,
      "bess": 4807,
      "clear": 4808,
      "view": 4809,
      "sicher": 4810,
      "less": 4811,
      "ps": 4812,
      "letz": 4813,
      "Proble": 4814,
      "weise": 4815,
      "ständ": 4816,
      "Sta": 4817,
      "keiten": 4818,
      "Rat": 4819,
      "wever": 4820,
      "mittel": 4821,
      "person": 4822,
      "chä": 4823,
      "Bo": 4824,
      "may": 4825,
      "gra": 4826,
      "cer": 4827,
      "schließ": 4828,
      "prom": 4829,
      "unity": 4830,
      "policy": 4831,
      "Wenn": 4832,
      "fall": 4833,
      "att": 4834,
      "brauch": 4835,
      "chten": 4836,
      "vir": 4837,
      "äm": 4838,
      "Ro": 4839,
      "währ": 4840,
      "gemein": 4841,
      "dann": 4842,
      "ited": 4843,
      "isen": 4844,
      "Vorsch": 4845,
      "los": 4846,
      "welt": 4847,
      "uman": 4848,
      "spre": 4849,
      "market": 4850,
      "know": 4851,
      "ument": 4852,
      "gener": 4853,
      "Haus": 4854,
      "zahl": 4855,
      "isation": 4856,
      "ös": 4857,
      "effe": 4858,
      "ven": 4859,
      "site": 4860,
      "star": 4861,
      "find": 4862,
      "There": 4863,
      "belie": 4864,
      "zeich": 4865,
      "On": 4866,
      "nahmen": 4867,
      "Bereich": 4868,
      "Des": 4869,
      "last": 4870,
      "play": 4871,
      "weil": 4872,
      "acht": 4873,
      "sure": 4874,
      "present": 4875,
      "wieder": 4876,
      "place": 4877,
      "differ": 4878,
      "lim": 4879,
      "stehen": 4880,
      "particular": 4881,
      "Gro": 4882,
      "12": 4883,
      "itik": 4884,
      "fahren": 4885,
      "diesen": 4886,
      "offen": 4887,
      "err": 4888,
      "damit": 4889,
      "Gen": 4890,
      "beste": 4891,
      "lage": 4892,
      "wohl": 4893,
      "nung": 4894,
      "after": 4895,
      "process": 4896,
      "vern": 4897,
      "used": 4898,
      "Welt": 4899,
      "ior": 4900,
      "wurden": 4901,
      "innen": 4902,
      "di": 4903,
      "fach": 4904,
      "30": 4905,
      "Ja": 4906,
      "bel": 4907,
      "ters": 4908,
      "Po": 4909,
      "fun": 4910,
      "rei": 4911,
      "val": 4912,
      "how": 4913,
      "ough": 4914,
      "aur": 4915,
      "possible": 4916,
      "elle": 4917,
      "Ko": 4918,
      "aum": 4919,
      "iness": 4920,
      "adt": 4921,
      "ade": 4922,
      "say": 4923,
      "18": 4924,
      "spr": 4925,
      "air": 4926,
      "cor": 4927,
      "requ": 4928,
      "Hand": 4929,
      "conc": 4930,
      "Wo": 4931,
      "entlich": 4932,
      "You": 4933,
      "Ihr": 4934,
      "area": 4935,
      "deb": 4936,
      "Diese": 4937,
      "que": 4938,
      "gehen": 4939,
      "chts": 4940,
      "ändern": 4941,
      "trä": 4942,
      "rag": 4943,
      "ants": 4944,
      "kr": 4945,
      "stitution": 4946,
      "reichen": 4947,
      "aller": 4948,
      "beg": 4949,
      "sur": 4950,
      "unserer": 4951,
      "rent": 4952,
      "trans": 4953,
      "habe": 4954,
      "sm": 4955,
      "comple": 4956,
      "far": 4957,
      "trol": 4958,
      "len": 4959,
      "Gem": 4960,
      "economic": 4961,
      "Fe": 4962,
      "wort": 4963,
      "wirtschaft": 4964,
      "einz": 4965,
      "ace": 4966,
      "rif": 4967,
      "ix": 4968,
      "Was": 4969,
      "itt": 4970,
      "through": 4971,
      "sondern": 4972,
      "Bar": 4973,
      "wert": 4974,
      "000": 4975,
      "point": 4976,
      "sim": 4977,
      "lau": 4978,
      "fest": 4979,
      "alth": 4980,
      "angen": 4981,
      "Bür": 4982,
      "uer": 4983,
      "ow": 4984,
      "seine": 4985,
      "ga": 4986,
      "50": 4987,
      "prote": 4988,
      "wirk": 4989,
      "jedoch": 4990,
      "kle": 4991,
      "put": 4992,
      "ellen": 4993,
      "ince": 4994,
      "Europäische": 4995,
      "exper": 4996,
      "var": 4997,
      "uro": 4998,
      "incre": 4999,
      "tegr": 5000,
      "old": 5001,
      "industr": 5002,
      "ply": 5003,
      "fahr": 5004,
      "human": 5005,
      "Bet": 5006,
      "concern": 5007,
      "eln": 5008,
      "great": 5009,
      "erst": 5010,
      "ausge": 5011,
      "hist": 5012,
      "führen": 5013,
      "Information": 5014,
      "Mo": 5015,
      "tens": 5016,
      "At": 5017,
      "access": 5018,
      "System": 5019,
      "gestel": 5020,
      "plic": 5021,
      "Sicher": 5022,
      "change": 5023,
      "iti": 5024,
      "ziel": 5025,
      "lobal": 5026,
      "contin": 5027,
      "neue": 5028,
      "prof": 5029,
      "Am": 5030,
      "hö": 5031,
      "grund": 5032,
      "ards": 5033,
      "lagen": 5034,
      "could": 5035,
      "ker": 5036,
      "political": 5037,
      "transp": 5038,
      "heute": 5039,
      "ages": 5040,
      "ata": 5041,
      "Program": 5042,
      "help": 5043,
      "provide": 5044,
      "want": 5045,
      "offer": 5046,
      "Ind": 5047,
      "Man": 5048,
      "lassen": 5049,
      "number": 5050,
      "Unternehmen": 5051,
      "back": 5052,
      "level": 5053,
      "Pre": 5054,
      "Än": 5055,
      "fund": 5056,
      "Teil": 5057,
      "isp": 5058,
      "development": 5059,
      "cap": 5060,
      "ude": 5061,
      "Res": 5062,
      "Web": 5063,
      "appro": 5064,
      "does": 5065,
      "lish": 5066,
      "rights": 5067,
      "pra": 5068,
      "within": 5069,
      "ready": 5070,
      "gung": 5071,
      "raft": 5072,
      "kom": 5073,
      "ierte": 5074,
      "satz": 5075,
      "look": 5076,
      "text": 5077,
      "ßnahmen": 5078,
      "exam": 5079,
      "itz": 5080,
      "avail": 5081,
      "ohne": 5082,
      "Änder": 5083,
      "ganz": 5084,
      "loy": 5085,
      "ähr": 5086,
      "open": 5087,
      "bereits": 5088,
      "sk": 5089,
      "All": 5090,
      "sign": 5091,
      "ability": 5092,
      "selbst": 5093,
      "tal": 5094,
      "much": 5095,
      "Richt": 5096,
      "ihrer": 5097,
      "against": 5098,
      "both": 5099,
      "mich": 5100,
      "ics": 5101,
      "zug": 5102,
      "govern": 5103,
      "country": 5104,
      "wichtig": 5105,
      "bur": 5106,
      "fle": 5107,
      "itä": 5108,
      "ree": 5109,
      "free": 5110,
      "pect": 5111,
      "large": 5112,
      "ath": 5113,
      "down": 5114,
      "Wer": 5115,
      "icult": 5116,
      "therefore": 5117,
      "Wie": 5118,
      "utions": 5119,
      "Gemein": 5120,
      "Entwicklung": 5121,
      "neuen": 5122,
      "ests": 5123,
      "europäischen": 5124,
      "führt": 5125,
      "ved": 5126,
      "sollte": 5127,
      "Leben": 5128,
      "kun": 5129,
      "clo": 5130,
      "ierten": 5131,
      "unt": 5132,
      "viron": 5133,
      "Jahren": 5134,
      "Mö": 5135,
      "ustom": 5136,
      "group": 5137,
      "too": 5138,
      "ator": 5139,
      "ulation": 5140,
      "Daten": 5141,
      "ER": 5142,
      "einfach": 5143,
      "fur": 5144,
      "priv": 5145,
      "finan": 5146,
      "still": 5147,
      "hlen": 5148,
      "eigen": 5149,
      "ret": 5150,
      "andere": 5151,
      "denen": 5152,
      "oftware": 5153,
      "operation": 5154,
      "liegt": 5155,
      "Is": 5156,
      "Part": 5157,
      "long": 5158,
      "eld": 5159,
      "une": 5160,
      "zwei": 5161,
      "fil": 5162,
      "position": 5163,
      "11": 5164,
      "Kom": 5165,
      "grö": 5166,
      "ätz": 5167,
      "kehr": 5168,
      "ren": 5169,
      "gent": 5170,
      "cord": 5171,
      "agement": 5172,
      "üh": 5173,
      "different": 5174,
      "without": 5175,
      "quality": 5176,
      "key": 5177,
      "Ste": 5178,
      "schn": 5179,
      "ittee": 5180,
      "social": 5181,
      "spec": 5182,
      "ctor": 5183,
      "consider": 5184,
      "Frage": 5185,
      "ask": 5186,
      "meas": 5187,
      "vironment": 5188,
      "inner": 5189,
      "ux": 5190,
      "seit": 5191,
      "ctions": 5192,
      "services": 5193,
      "iver": 5194,
      "inst": 5195,
      "woll": 5196,
      "immt": 5197,
      "hop": 5198,
      "lif": 5199,
      "verschieden": 5200,
      "sehen": 5201,
      "sollten": 5202,
      "hän": 5203,
      "machen": 5204,
      "service": 5205,
      "bietet": 5206,
      "Bürger": 5207,
      "ep": 5208,
      "Chin": 5209,
      "uf": 5210,
      "Person": 5211,
      "ti": 5212,
      "schafts": 5213,
      "Wor": 5214,
      "Da": 5215,
      "komm": 5216,
      "nahme": 5217,
      "car": 5218,
      "power": 5219,
      "ways": 5220,
      "zeug": 5221,
      "licher": 5222,
      "unterstütz": 5223,
      "fast": 5224,
      "ision": 5225,
      "cit": 5226,
      "ists": 5227,
      "ize": 5228,
      "bil": 5229,
      "arbe": 5230,
      "kes": 5231,
      "available": 5232,
      "design": 5233,
      "Mittel": 5234,
      "fut": 5235,
      "gend": 5236,
      "wes": 5237,
      "Bed": 5238,
      "kten": 5239,
      "ivid": 5240,
      "let": 5241,
      "atur": 5242,
      "Stand": 5243,
      "alten": 5244,
      "pass": 5245,
      "ime": 5246,
      "inc": 5247,
      "require": 5248,
      "ichte": 5249,
      "member": 5250,
      "ness": 5251,
      "met": 5252,
      "rooms": 5253,
      "nor": 5254,
      "Tre": 5255,
      "geht": 5256,
      "az": 5257,
      "mir": 5258,
      "business": 5259,
      "tion": 5260,
      "ised": 5261,
      "Internet": 5262,
      "fern": 5263,
      "Dem": 5264,
      "sprechen": 5265,
      "eben": 5266,
      "besondere": 5267,
      "ibility": 5268,
      "statt": 5269,
      "ves": 5270,
      "certain": 5271,
      "thor": 5272,
      "bt": 5273,
      "llen": 5274,
      "luss": 5275,
      "course": 5276,
      "EN": 5277,
      "viele": 5278,
      "ispiel": 5279,
      "findet": 5280,
      "16": 5281,
      "current": 5282,
      "amer": 5283,
      "besch": 5284,
      "dazu": 5285,
      "gut": 5286,
      "custom": 5287,
      "ience": 5288,
      "uten": 5289,
      "alen": 5290,
      "before": 5291,
      "ffic": 5292,
      "uck": 5293,
      "bau": 5294,
      "Kommiss": 5295,
      "chan": 5296,
      "enter": 5297,
      "omen": 5298,
      "already": 5299,
      "Arbe": 5300,
      "Möglich": 5301,
      "future": 5302,
      "believe": 5303,
      "ienst": 5304,
      "iß": 5305,
      "van": 5306,
      "stellung": 5307,
      "arch": 5308,
      "kur": 5309,
      "ktur": 5310,
      "ond": 5311,
      "seiner": 5312,
      "red": 5313,
      "besser": 5314,
      "La": 5315,
      "strateg": 5316,
      "special": 5317,
      "gestellt": 5318,
      "Med": 5319,
      "denn": 5320,
      "reas": 5321,
      "Ziel": 5322,
      "aff": 5323,
      "ving": 5324,
      "But": 5325,
      "Tra": 5326,
      "nam": 5327,
      "global": 5328,
      "cing": 5329,
      "har": 5330,
      "employ": 5331,
      "recht": 5332,
      "technolog": 5333,
      "today": 5334,
      "respons": 5335,
      "]]": 5336,
      "That": 5337,
      "14": 5338,
      "ides": 5339,
      "könn": 5340,
      "darauf": 5341,
      "Com": 5342,
      "entwick": 5343,
      "products": 5344,
      "case": 5345,
      "jor": 5346,
      "Af": 5347,
      "jetzt": 5348,
      "[[": 5349,
      "ahmen": 5350,
      "think": 5351,
      "2009": 5352,
      "ismus": 5353,
      "mb": 5354,
      "rap": 5355,
      "ont": 5356,
      "environment": 5357,
      "disc": 5358,
      "betr": 5359,
      "redu": 5360,
      "cond": 5361,
      "char": 5362,
      "schon": 5363,
      "Rahmen": 5364,
      "ically": 5365,
      "klär": 5366,
      "data": 5367,
      "zentr": 5368,
      "ahre": 5369,
      "17": 5370,
      "mor": 5371,
      "Lage": 5372,
      "suc": 5373,
      "Maßnahmen": 5374,
      "Serv": 5375,
      "agen": 5376,
      "cannot": 5377,
      "Energ": 5378,
      "dy": 5379,
      "integr": 5380,
      "nisse": 5381,
      "ritt": 5382,
      "Informationen": 5383,
      "city": 5384,
      "plan": 5385,
      "curity": 5386,
      "sor": 5387,
      "na": 5388,
      "Kin": 5389,
      "öl": 5390,
      "bieten": 5391,
      "Finanz": 5392,
      "amp": 5393,
      "folg": 5394,
      "zus": 5395,
      "Qu": 5396,
      "cho": 5397,
      "falls": 5398,
      "Amer": 5399,
      "ica": 5400,
      "imin": 5401,
      "13": 5402,
      "individ": 5403,
      "aterial": 5404,
      "IN": 5405,
      "ward": 5406,
      "isk": 5407,
      "mus": 5408,
      "follow": 5409,
      "isl": 5410,
      "Fall": 5411,
      "saf": 5412,
      "olution": 5413,
      "uni": 5414,
      "uding": 5415,
      "offers": 5416,
      "activ": 5417,
      "ues": 5418,
      "invest": 5419,
      "ately": 5420,
      "zusammen": 5421,
      "question": 5422,
      "col": 5423,
      "einige": 5424,
      "lossen": 5425,
      "imple": 5426,
      "web": 5427,
      "exp": 5428,
      "anken": 5429,
      "sam": 5430,
      "small": 5431,
      "iving": 5432,
      "dafür": 5433,
      "Stadt": 5434,
      "wissen": 5435,
      "Zimmer": 5436,
      "fair": 5437,
      "leist": 5438,
      "gesam": 5439,
      "Bl": 5440,
      "situation": 5441,
      "iter": 5442,
      "okrat": 5443,
      "And": 5444,
      "famil": 5445,
      "cell": 5446,
      "Russ": 5447,
      "ante": 5448,
      "meet": 5449,
      "legal": 5450,
      "Commissioner": 5451,
      "Spe": 5452,
      "Herrn": 5453,
      "bereit": 5454,
      "Euro": 5455,
      "ilt": 5456,
      "cas": 5457,
      "energ": 5458,
      "asse": 5459,
      "fully": 5460,
      "necess": 5461,
      "Aussch": 5462,
      "direct": 5463,
      "Pal": 5464,
      "law": 5465,
      "rie": 5466,
      "nov": 5467,
      "ca": 5468,
      "enth": 5469,
      "liegen": 5470,
      "spra": 5471,
      "Em": 5472,
      "gress": 5473,
      "issue": 5474,
      "during": 5475,
      "nun": 5476,
      "zurück": 5477,
      "citiz": 5478,
      "iff": 5479,
      "pay": 5480,
      "waren": 5481,
      "äß": 5482,
      "ually": 5483,
      "hof": 5484,
      "bind": 5485,
      "ihren": 5486,
      "financial": 5487,
      "Nor": 5488,
      "inen": 5489,
      "Ange": 5490,
      "heiten": 5491,
      "allem": 5492,
      "said": 5493,
      "Jahre": 5494,
      "bs": 5495,
      "equ": 5496,
      "setzung": 5497,
      "ahn": 5498,
      "cost": 5499,
      "kunft": 5500,
      "modern": 5501,
      "begr": 5502,
      "top": 5503,
      "bro": 5504,
      "Ad": 5505,
      "side": 5506,
      "ound": 5507,
      "regard": 5508,
      "ron": 5509,
      "ship": 5510,
      "achie": 5511,
      "problem": 5512,
      "auto": 5513,
      "debate": 5514,
      "means": 5515,
      "including": 5516,
      "AN": 5517,
      "Verein": 5518,
      "ily": 5519,
      "example": 5520,
      "aupt": 5521,
      "wach": 5522,
      "25": 5523,
      "major": 5524,
      "proposal": 5525,
      "applic": 5526,
      "folgen": 5527,
      "stellt": 5528,
      "Für": 5529,
      "Rechts": 5530,
      "cken": 5531,
      "Arbeits": 5532,
      "steht": 5533,
      "meine": 5534,
      "count": 5535,
      "worden": 5536,
      "nie": 5537,
      "wal": 5538,
      "heits": 5539,
      "Kommissar": 5540,
      "eas": 5541,
      "since": 5542,
      "cult": 5543,
      "Best": 5544,
      "ows": 5545,
      "wollen": 5546,
      "Ur": 5547,
      "punkt": 5548,
      "stay": 5549,
      "Politik": 5550,
      "ett": 5551,
      "Eine": 5552,
      "Su": 5553,
      "illion": 5554,
      "Our": 5555,
      "udget": 5556,
      "verfü": 5557,
      "call": 5558,
      "fte": 5559,
      "würde": 5560,
      "iele": 5561,
      "However": 5562,
      "24": 5563,
      "ized": 5564,
      "stre": 5565,
      "action": 5566,
      "With": 5567,
      "using": 5568,
      "abil": 5569,
      "unseren": 5570,
      "based": 5571,
      "sagen": 5572,
      "antwort": 5573,
      "Lin": 5574,
      "struct": 5575,
      "utes": 5576,
      "ationen": 5577,
      "author": 5578,
      "taken": 5579,
      "oren": 5580,
      "build": 5581,
      "pp": 5582,
      "kün": 5583,
      "each": 5584,
      "bewer": 5585,
      "ktionen": 5586,
      "compet": 5587,
      "ying": 5588,
      "adop": 5589,
      "isierung": 5590,
      "tour": 5591,
      "dep": 5592,
      "allow": 5593,
      "vi": 5594,
      "immung": 5595,
      "legt": 5596,
      "spiel": 5597,
      "ES": 5598,
      "leben": 5599,
      "Proje": 5600,
      "IT": 5601,
      "bringen": 5602,
      "Committee": 5603,
      "Fir": 5604,
      "colle": 5605,
      "AT": 5606,
      "während": 5607,
      "schein": 5608,
      "sozial": 5609,
      "control": 5610,
      "Parlaments": 5611,
      "tes": 5612,
      "stär": 5613,
      "Kolle": 5614,
      "Länder": 5615,
      "common": 5616,
      "three": 5617,
      "amend": 5618,
      "page": 5619,
      "Ser": 5620,
      "hält": 5621,
      "histor": 5622,
      "ichter": 5623,
      "etwas": 5624,
      "Techn": 5625,
      "ffen": 5626,
      "tun": 5627,
      "conta": 5628,
      "EC": 5629,
      "Recht": 5630,
      "ird": 5631,
      "Lös": 5632,
      "trib": 5633,
      "ential": 5634,
      "Deut": 5635,
      "give": 5636,
      "ablish": 5637,
      "ordin": 5638,
      "aurant": 5639,
      "next": 5640,
      "doch": 5641,
      "areas": 5642,
      "Vorschlag": 5643,
      "ensure": 5644,
      "dra": 5645,
      "UN": 5646,
      "measures": 5647,
      "success": 5648,
      "rece": 5649,
      "Und": 5650,
      "IS": 5651,
      "specific": 5652,
      "lungs": 5653,
      "ersten": 5654,
      "erhalten": 5655,
      "lik": 5656,
      "Geschä": 5657,
      "ordnung": 5658,
      "Mill": 5659,
      "company": 5660,
      "aren": 5661,
      "few": 5662,
      "Zwe": 5663,
      "energy": 5664,
      "cover": 5665,
      "sy": 5666,
      "ining": 5667,
      "Bild": 5668,
      "log": 5669,
      "schrif": 5670,
      "unde": 5671,
      "result": 5672,
      "linie": 5673,
      "ja": 5674,
      "bank": 5675,
      "ines": 5676,
      "scheid": 5677,
      "pop": 5678,
      "gangen": 5679,
      "2010": 5680,
      "agreement": 5681,
      "Unterstütz": 5682,
      "thank": 5683,
      "arbeiten": 5684,
      "lungen": 5685,
      "discuss": 5686,
      "establish": 5687,
      "while": 5688,
      "book": 5689,
      "Durch": 5690,
      "ased": 5691,
      "insbesondere": 5692,
      "ürlich": 5693,
      "fts": 5694,
      "further": 5695,
      "necessary": 5696,
      "Rest": 5697,
      "setzen": 5698,
      "Qual": 5699,
      "citizens": 5700,
      "earch": 5701,
      "life": 5702,
      "Ital": 5703,
      "dig": 5704,
      "schaften": 5705,
      "China": 5706,
      "ditions": 5707,
      "hmen": 5708,
      "San": 5709,
      "Bei": 5710,
      "pat": 5711,
      "gang": 5712,
      "kauf": 5713,
      "mil": 5714,
      "Spiel": 5715,
      "gehör": 5716,
      "grow": 5717,
      "addition": 5718,
      "atic": 5719,
      "igin": 5720,
      "cher": 5721,
      "half": 5722,
      "außer": 5723,
      "Markt": 5724,
      "einmal": 5725,
      "iet": 5726,
      "vention": 5727,
      "commun": 5728,
      "Änderungs": 5729,
      "Verfü": 5730,
      "glichen": 5731,
      "2008": 5732,
      "wish": 5733,
      "ton": 5734,
      "gesetzt": 5735,
      "ache": 5736,
      "Group": 5737,
      "ling": 5738,
      "fiel": 5739,
      "writ": 5740,
      "whe": 5741,
      "Mein": 5742,
      "sing": 5743,
      "pack": 5744,
      "lead": 5745,
      "umf": 5746,
      "security": 5747,
      "ilfe": 5748,
      "utzen": 5749,
      "incip": 5750,
      "ichten": 5751,
      "uc": 5752,
      "light": 5753,
      "bot": 5754,
      "alled": 5755,
      "Form": 5756,
      "letzten": 5757,
      "beim": 5758,
      "größ": 5759,
      "bit": 5760,
      "problems": 5761,
      "bede": 5762,
      "shall": 5763,
      "Unterstützung": 5764,
      "ning": 5765,
      "verwen": 5766,
      "opport": 5767,
      "tragen": 5768,
      "ules": 5769,
      "Fol": 5770,
      "Dar": 5771,
      "miss": 5772,
      "Gesch": 5773,
      "Sit": 5774,
      "lay": 5775,
      "did": 5776,
      "ane": 5777,
      "legisl": 5778,
      "ina": 5779,
      "jen": 5780,
      "zo": 5781,
      "start": 5782,
      "Namen": 5783,
      "100": 5784,
      "ktiv": 5785,
      "walt": 5786,
      "Zusammenarbeit": 5787,
      "defin": 5788,
      "pract": 5789,
      "Bel": 5790,
      "health": 5791,
      "vote": 5792,
      "Tag": 5793,
      "given": 5794,
      "ext": 5795,
      "budget": 5796,
      "genommen": 5797,
      "umen": 5798,
      "inform": 5799,
      "cially": 5800,
      "agt": 5801,
      "Dienst": 5802,
      "drei": 5803,
      "zess": 5804,
      "sequ": 5805,
      "princip": 5806,
      "km": 5807,
      "CO": 5808,
      "Ländern": 5809,
      "esse": 5810,
      "Mad": 5811,
      "ged": 5812,
      "opp": 5813,
      "porte": 5814,
      "Kunden": 5815,
      "ements": 5816,
      "tradition": 5817,
      "dress": 5818,
      "bat": 5819,
      "hope": 5820,
      "entlichen": 5821,
      "ises": 5822,
      "ellschaft": 5823,
      "Stra": 5824,
      "Gu": 5825,
      "invol": 5826,
      "igten": 5827,
      "flo": 5828,
      "Mal": 5829,
      "systems": 5830,
      "Mus": 5831,
      "Sicherheit": 5832,
      "leicht": 5833,
      "gn": 5834,
      "Flug": 5835,
      "complete": 5836,
      "rele": 5837,
      "Umwelt": 5838,
      "spl": 5839,
      "Ben": 5840,
      "ding": 5841,
      "wards": 5842,
      "why": 5843,
      "sour": 5844,
      "Organ": 5845,
      "region": 5846,
      "however": 5847,
      "self": 5848,
      "located": 5849,
      "programm": 5850,
      "Problem": 5851,
      "zept": 5852,
      "iety": 5853,
      "markt": 5854,
      "Cl": 5855,
      "zü": 5856,
      "refer": 5857,
      "Ob": 5858,
      "water": 5859,
      "einge": 5860,
      "besteht": 5861,
      "cooperation": 5862,
      "treten": 5863,
      "ising": 5864,
      "örder": 5865,
      "ross": 5866,
      "conne": 5867,
      "stra": 5868,
      "ww": 5869,
      "anal": 5870,
      "Hin": 5871,
      "pur": 5872,
      "gether": 5873,
      "Vol": 5874,
      "sum": 5875,
      "deren": 5876,
      "Gar": 5877,
      "asch": 5878,
      "protection": 5879,
      "führung": 5880,
      "stim": 5881,
      "full": 5882,
      "implement": 5883,
      "ierungs": 5884,
      "licht": 5885,
      "ively": 5886,
      "compan": 5887,
      "öt": 5888,
      "Kl": 5889,
      "ified": 5890,
      "uge": 5891,
      "Bus": 5892,
      "streng": 5893,
      "ildr": 5894,
      "AR": 5895,
      "care": 5896,
      "Sol": 5897,
      "Rom": 5898,
      "itäten": 5899,
      "always": 5900,
      "joy": 5901,
      "Stel": 5902,
      "Regierung": 5903,
      "glau": 5904,
      "needs": 5905,
      "working": 5906,
      "II": 5907,
      "gaben": 5908,
      "views": 5909,
      "appe": 5910,
      "They": 5911,
      "lemen": 5912,
      "Fragen": 5913,
      "state": 5914,
      "frien": 5915,
      "Kar": 5916,
      "wär": 5917,
      "seinen": 5918,
      "Ir": 5919,
      "government": 5920,
      "House": 5921,
      "reach": 5922,
      "wendung": 5923,
      "bekann": 5924,
      "mult": 5925,
      "Beit": 5926,
      "eig": 5927,
      "United": 5928,
      "ildren": 5929,
      "bereich": 5930,
      "zieh": 5931,
      "uter": 5932,
      "production": 5933,
      "stud": 5934,
      "lea": 5935,
      "Auto": 5936,
      "rechte": 5937,
      "welche": 5938,
      "better": 5939,
      "centr": 5940,
      "dom": 5941,
      "interest": 5942,
      "elf": 5943,
      "diff": 5944,
      "Service": 5945,
      "häng": 5946,
      "handelt": 5947,
      "nal": 5948,
      "Energie": 5949,
      "Seite": 5950,
      "poin": 5951,
      "transport": 5952,
      "wäre": 5953,
      "USA": 5954,
      "Community": 5955,
      "kosten": 5956,
      "non": 5957,
      "ätze": 5958,
      "cks": 5959,
      "break": 5960,
      "dabei": 5961,
      "hang": 5962,
      "40": 5963,
      "visit": 5964,
      "ivil": 5965,
      "initi": 5966,
      "crit": 5967,
      "second": 5968,
      "Besch": 5969,
      "hy": 5970,
      "wide": 5971,
      "spol": 5972,
      "Kollegen": 5973,
      "Vertrag": 5974,
      "genau": 5975,
      "found": 5976,
      "Port": 5977,
      "ches": 5978,
      "around": 5979,
      "erk": 5980,
      "consum": 5981,
      "2007": 5982,
      "Not": 5983,
      "druck": 5984,
      "respect": 5985,
      "load": 5986,
      "ash": 5987,
      "ialog": 5988,
      "Famil": 5989,
      "wee": 5990,
      "What": 5991,
      "Chr": 5992,
      "ury": 5993,
      "making": 5994,
      "iste": 5995,
      "him": 5996,
      "großen": 5997,
      "together": 5998,
      "blick": 5999,
      "muß": 6000,
      "hip": 6001,
      "zeigt": 6002,
      "große": 6003,
      "oth": 6004,
      "Gener": 6005,
      "Fraktion": 6006,
      "prü": 6007,
      "fect": 6008,
      "programme": 6009,
      "Bedeut": 6010,
      "gabe": 6011,
      "ingungen": 6012,
      "accept": 6013,
      "term": 6014,
      "dist": 6015,
      "politischen": 6016,
      "Kinder": 6017,
      "rad": 6018,
      "German": 6019,
      "sever": 6020,
      "rän": 6021,
      "Programm": 6022,
      "row": 6023,
      "hoto": 6024,
      "2000": 6025,
      "lad": 6026,
      "chäft": 6027,
      "burg": 6028,
      "AS": 6029,
      "date": 6030,
      "recent": 6031,
      "Mrs": 6032,
      "Entscheid": 6033,
      "Regel": 6034,
      "porteur": 6035,
      "terms": 6036,
      "deal": 6037,
      "verb": 6038,
      "Eben": 6039,
      "Verfügung": 6040,
      "''": 6041,
      "When": 6042,
      "schw": 6043,
      "International": 6044,
      "Air": 6045,
      "short": 6046,
      "profess": 6047,
      "trade": 6048,
      "ichterstat": 6049,
      "clus": 6050,
      "Hier": 6051,
      "tax": 6052,
      "Bedeutung": 6053,
      "uft": 6054,
      "Ergeb": 6055,
      "carr": 6056,
      "Tur": 6057,
      "wirklich": 6058,
      "centre": 6059,
      "ums": 6060,
      "near": 6061,
      "iges": 6062,
      "cal": 6063,
      "whether": 6064,
      "exist": 6065,
      "become": 6066,
      "Lebens": 6067,
      "particularly": 6068,
      "proper": 6069,
      "proje": 6070,
      "going": 6071,
      "account": 6072,
      "kets": 6073,
      "These": 6074,
      "ders": 6075,
      "yo": 6076,
      "assung": 6077,
      "management": 6078,
      "ikan": 6079,
      "deta": 6080,
      "local": 6081,
      "jeder": 6082,
      "enten": 6083,
      "uments": 6084,
      "extre": 6085,
      "Schutz": 6086,
      "Möglichkeit": 6087,
      "60": 6088,
      "material": 6089,
      "fäh": 6090,
      "lauf": 6091,
      "Sk": 6092,
      "Fo": 6093,
      "Aber": 6094,
      "ose": 6095,
      "basis": 6096,
      "pers": 6097,
      "difficult": 6098,
      "another": 6099,
      "inclu": 6100,
      "Staaten": 6101,
      "Li": 6102,
      "cel": 6103,
      "lack": 6104,
      "-,": 6105,
      "children": 6106,
      "bild": 6107,
      "Per": 6108,
      "role": 6109,
      "ende": 6110,
      "ention": 6111,
      "schließlich": 6112,
      "research": 6113,
      "Zug": 6114,
      "town": 6115,
      "ars": 6116,
      "wand": 6117,
      "personal": 6118,
      "kommt": 6119,
      "Fun": 6120,
      "beach": 6121,
      "mut": 6122,
      "Auch": 6123,
      "rapporteur": 6124,
      "issues": 6125,
      "express": 6126,
      "anc": 6127,
      "alles": 6128,
      "guar": 6129,
      "notwend": 6130,
      "bestimm": 6131,
      "Lie": 6132,
      "conditions": 6133,
      "Beispiel": 6134,
      "ocr": 6135,
      "reason": 6136,
      "träge": 6137,
      "80": 6138,
      "ultur": 6139,
      "iben": 6140,
      "reco": 6141,
      "xim": 6142,
      "vious": 6143,
      "Zahl": 6144,
      "contrib": 6145,
      "perio": 6146,
      "typ": 6147,
      "org": 6148,
      "New": 6149,
      "Als": 6150,
      "Ant": 6151,
      "halts": 6152,
      "hervor": 6153,
      "gef": 6154,
      "whole": 6155,
      "ief": 6156,
      "sto": 6157,
      "bon": 6158,
      "näch": 6159,
      "depend": 6160,
      "wegen": 6161,
      "speak": 6162,
      "fert": 6163,
      "kre": 6164,
      "ölker": 6165,
      "lichkeit": 6166,
      "fig": 6167,
      "davon": 6168,
      "ners": 6169,
      "Lo": 6170,
      "Kre": 6171,
      "entfern": 6172,
      "instit": 6173,
      "tag": 6174,
      "show": 6175,
      "Thema": 6176,
      "EUR": 6177,
      "origin": 6178,
      "post": 6179,
      "Strateg": 6180,
      "ieg": 6181,
      "facil": 6182,
      "weisen": 6183,
      "schied": 6184,
      "cut": 6185,
      "equip": 6186,
      "\",": 6187,
      "sector": 6188,
      "address": 6189,
      "aty": 6190,
      "Frauen": 6191,
      "espe": 6192,
      "darüber": 6193,
      "suchen": 6194,
      "gegenüber": 6195,
      "schnell": 6196,
      "erforder": 6197,
      "Haupt": 6198,
      "weg": 6199,
      "\".": 6200,
      "Wett": 6201,
      "kein": 6202,
      "aim": 6203,
      "sele": 6204,
      "lle": 6205,
      "Zentr": 6206,
      "Fort": 6207,
      "close": 6208,
      "fon": 6209,
      "Gä": 6210,
      "daher": 6211,
      "Probleme": 6212,
      "anges": 6213,
      "Je": 6214,
      "tschafts": 6215,
      "coming": 6216,
      "Wahl": 6217,
      "schutz": 6218,
      "Berichterstat": 6219,
      "enzen": 6220,
      "23": 6221,
      "ground": 6222,
      "cording": 6223,
      "Weg": 6224,
      "Gegen": 6225,
      "igkeiten": 6226,
      "decision": 6227,
      "eigenen": 6228,
      "Industr": 6229,
      "companies": 6230,
      "women": 6231,
      "month": 6232,
      "auer": 6233,
      "amm": 6234,
      "word": 6235,
      "Viel": 6236,
      "various": 6237,
      "Tour": 6238,
      "Weise": 6239,
      "gere": 6240,
      "list": 6241,
      "commit": 6242,
      "Fahr": 6243,
      "experience": 6244,
      "ategor": 6245,
      "sport": 6246,
      "feat": 6247,
      "darf": 6248,
      "igr": 6249,
      "käm": 6250,
      "benef": 6251,
      "geord": 6252,
      "called": 6253,
      "reform": 6254,
      "industry": 6255,
      "doc": 6256,
      "frei": 6257,
      "sowohl": 6258,
      "hil": 6259,
      "vour": 6260,
      "selves": 6261,
      "ino": 6262,
      "ban": 6263,
      "guarante": 6264,
      "face": 6265,
      "DE": 6266,
      "Seiten": 6267,
      "weitere": 6268,
      "meiner": 6269,
      "isches": 6270,
      "IC": 6271,
      "Artik": 6272,
      "big": 6273,
      "Ende": 6274,
      "though": 6275,
      "comes": 6276,
      "Ihrer": 6277,
      "befindet": 6278,
      "ika": 6279,
      "erreichen": 6280,
      "Vers": 6281,
      "ziehen": 6282,
      "distr": 6283,
      "greif": 6284,
      "third": 6285,
      "she": 6286,
      "hatte": 6287,
      "especially": 6288,
      "Deutsch": 6289,
      "Produkt": 6290,
      "könnte": 6291,
      "politik": 6292,
      "ehen": 6293,
      "innov": 6294,
      "iar": 6295,
      "oney": 6296,
      "prior": 6297,
      "War": 6298,
      "Ausschuss": 6299,
      "Software": 6300,
      "dessen": 6301,
      "natürlich": 6302,
      "matter": 6303,
      "racht": 6304,
      "food": 6305,
      "Car": 6306,
      "location": 6307,
      "really": 6308,
      "kno": 6309,
      "head": 6310,
      "tt": 6311,
      "staff": 6312,
      "neten": 6313,
      "wind": 6314,
      "Zukunft": 6315,
      "ped": 6316,
      "Alle": 6317,
      "Forsch": 6318,
      "besonders": 6319,
      "iday": 6320,
      "klar": 6321,
      "goti": 6322,
      "iate": 6323,
      "Char": 6324,
      "Sy": 6325,
      "name": 6326,
      "lands": 6327,
      "AL": 6328,
      "dings": 6329,
      "hard": 6330,
      "Mehr": 6331,
      "ktor": 6332,
      "ably": 6333,
      "user": 6334,
      "contra": 6335,
      "tele": 6336,
      "El": 6337,
      "effect": 6338,
      "private": 6339,
      "Grup": 6340,
      "ry": 6341,
      "soc": 6342,
      "ands": 6343,
      "hoch": 6344,
      "Pe": 6345,
      "unterstützen": 6346,
      "cellent": 6347,
      "Fest": 6348,
      "crip": 6349,
      "ihnen": 6350,
      "done": 6351,
      "improv": 6352,
      "2006": 6353,
      "road": 6354,
      "Sw": 6355,
      "Richtlinie": 6356,
      "comfort": 6357,
      "verschiedenen": 6358,
      "create": 6359,
      "project": 6360,
      "ization": 6361,
      "Den": 6362,
      "lines": 6363,
      "ON": 6364,
      "pose": 6365,
      "mot": 6366,
      "automat": 6367,
      "dou": 6368,
      "ils": 6369,
      "product": 6370,
      "ences": 6371,
      "rä": 6372,
      "Minister": 6373,
      "proced": 6374,
      "run": 6375,
      "üss": 6376,
      "install": 6377,
      "abhäng": 6378,
      "Comp": 6379,
      "turn": 6380,
      "gegeben": 6381,
      "Situation": 6382,
      "äd": 6383,
      "vest": 6384,
      "zip": 6385,
      "orn": 6386,
      "innerhalb": 6387,
      "genann": 6388,
      "communic": 6389,
      "enden": 6390,
      "geschlossen": 6391,
      "negoti": 6392,
      "Währ": 6393,
      "isions": 6394,
      "entfernt": 6395,
      "job": 6396,
      "Afr": 6397,
      "kind": 6398,
      "represent": 6399,
      "Do": 6400,
      "Wettbewer": 6401,
      "Kol": 6402,
      "vielen": 6403,
      "Dire": 6404,
      "dort": 6405,
      "ival": 6406,
      "tell": 6407,
      "home": 6408,
      "ativen": 6409,
      "def": 6410,
      "house": 6411,
      "regul": 6412,
      "TV": 6413,
      "geführt": 6414,
      "scheiden": 6415,
      "class": 6416,
      "ety": 6417,
      "enjoy": 6418,
      "langu": 6419,
      "Rolle": 6420,
      "Germany": 6421,
      "favour": 6422,
      "trodu": 6423,
      "ministr": 6424,
      "test": 6425,
      "Go": 6426,
      "approach": 6427,
      "ived": 6428,
      "Grün": 6429,
      "spolitik": 6430,
      "zwar": 6431,
      "ither": 6432,
      "million": 6433,
      "ichtet": 6434,
      "ennt": 6435,
      "instr": 6436,
      "event": 6437,
      "aid": 6438,
      "single": 6439,
      "samen": 6440,
      "among": 6441,
      "Geschäfts": 6442,
      "ivers": 6443,
      "general": 6444,
      "unge": 6445,
      "amework": 6446,
      "äuß": 6447,
      "abo": 6448,
      "cke": 6449,
      "internationalen": 6450,
      "ativ": 6451,
      "Wind": 6452,
      "stimmung": 6453,
      "blo": 6454,
      "employment": 6455,
      "something": 6456,
      "Bu": 6457,
      "Ta": 6458,
      "direkt": 6459,
      "ols": 6460,
      "fficient": 6461,
      "understand": 6462,
      "itself": 6463,
      "ours": 6464,
      "away": 6465,
      "deli": 6466,
      "Fil": 6467,
      "several": 6468,
      "vol": 6469,
      "finanz": 6470,
      "atten": 6471,
      "cris": 6472,
      "resour": 6473,
      "Nutz": 6474,
      "range": 6475,
      "möchten": 6476,
      "Wes": 6477,
      "ifiz": 6478,
      "Fä": 6479,
      "ets": 6480,
      "Ap": 6481,
      "Transp": 6482,
      "resolution": 6483,
      "itor": 6484,
      "software": 6485,
      "Kü": 6486,
      "introdu": 6487,
      "known": 6488,
      "ittle": 6489,
      "Verbrauch": 6490,
      "organis": 6491,
      "continue": 6492,
      "oment": 6493,
      "version": 6494,
      "Technolog": 6495,
      "Park": 6496,
      "AG": 6497,
      "ühr": 6498,
      "folgt": 6499,
      "often": 6500,
      "Ihren": 6501,
      "urs": 6502,
      "ican": 6503,
      "werk": 6504,
      "peace": 6505,
      "anzu": 6506,
      "mäß": 6507,
      "ov": 6508,
      "ago": 6509,
      "dür": 6510,
      "ände": 6511,
      "hlt": 6512,
      "TO": 6513,
      "asing": 6514,
      "regional": 6515,
      "lot": 6516,
      "rael": 6517,
      "mark": 6518,
      "institution": 6519,
      "vil": 6520,
      "excellent": 6521,
      "Wasser": 6522,
      "advan": 6523,
      "Wirtschaft": 6524,
      "AC": 6525,
      "app": 6526,
      "Hotels": 6527,
      "Gre": 6528,
      "progress": 6529,
      "taking": 6530,
      "World": 6531,
      "Berlin": 6532,
      "sprache": 6533,
      "least": 6534,
      "My": 6535,
      "Dr": 6536,
      "subject": 6537,
      "relations": 6538,
      "table": 6539,
      "Rück": 6540,
      "etc": 6541,
      "days": 6542,
      "Artikel": 6543,
      "opin": 6544,
      "erste": 6545,
      "atives": 6546,
      "ones": 6547,
      "following": 6548,
      "Frank": 6549,
      "Komm": 6550,
      "verl": 6551,
      "gentlemen": 6552,
      "Wirtschafts": 6553,
      "family": 6554,
      "serious": 6555,
      "Jan": 6556,
      "Partner": 6557,
      "olf": 6558,
      "inde": 6559,
      "europäische": 6560,
      "imp": 6561,
      "konn": 6562,
      "ugen": 6563,
      "nehmer": 6564,
      "Uhr": 6565,
      "ksam": 6566,
      "21": 6567,
      "apart": 6568,
      "crisis": 6569,
      "ances": 6570,
      "aussch": 6571,
      "tage": 6572,
      "zeitig": 6573,
      "particip": 6574,
      "ians": 6575,
      "Bau": 6576,
      "hunder": 6577,
      "individual": 6578,
      "rules": 6579,
      "optim": 6580,
      "gricult": 6581,
      "Gesund": 6582,
      "field": 6583,
      "hinaus": 6584,
      "ünst": 6585,
      "directive": 6586,
      "price": 6587,
      "Natur": 6588,
      "ults": 6589,
      "Stud": 6590,
      "terr": 6591,
      "once": 6592,
      "fel": 6593,
      "Ele": 6594,
      "online": 6595,
      "Spra": 6596,
      "Ac": 6597,
      "affen": 6598,
      "Gebie": 6599,
      "iere": 6600,
      "ifft": 6601,
      "frage": 6602,
      "network": 6603,
      "money": 6604,
      "milit": 6605,
      "dest": 6606,
      "Dis": 6607,
      "forward": 6608,
      "ferenz": 6609,
      "ared": 6610,
      "feel": 6611,
      "Berichterstatter": 6612,
      "antrag": 6613,
      "flex": 6614,
      "Invest": 6615,
      "gern": 6616,
      "einzel": 6617,
      "icle": 6618,
      "ierungen": 6619,
      "function": 6620,
      "mention": 6621,
      "absol": 6622,
      "schaffen": 6623,
      "Fisch": 6624,
      "welcome": 6625,
      "wahr": 6626,
      "Meinung": 6627,
      "Ter": 6628,
      "Ru": 6629,
      "Kultur": 6630,
      "erien": 6631,
      "strong": 6632,
      "soci": 6633,
      "towards": 6634,
      "imate": 6635,
      "ließen": 6636,
      "leistungen": 6637,
      "unehmen": 6638,
      "zer": 6639,
      "Span": 6640,
      "22": 6641,
      "entsprechen": 6642,
      "little": 6643,
      "bi": 6644,
      "things": 6645,
      "Abgeord": 6646,
      "ingen": 6647,
      "Gleich": 6648,
      "mann": 6649,
      "vier": 6650,
      "period": 6651,
      "weis": 6652,
      "uses": 6653,
      "amo": 6654,
      "bestehen": 6655,
      "extrem": 6656,
      "pot": 6657,
      "hät": 6658,
      "grün": 6659,
      "ichts": 6660,
      "gesehen": 6661,
      "Projekt": 6662,
      "Terr": 6663,
      "Hilfe": 6664,
      "RO": 6665,
      "teilung": 6666,
      "until": 6667,
      "zimmer": 6668,
      "institutions": 6669,
      "hnt": 6670,
      "za": 6671,
      "Zusammenhang": 6672,
      "iken": 6673,
      "Jul": 6674,
      "National": 6675,
      "iesen": 6676,
      "elect": 6677,
      "ragen": 6678,
      "situ": 6679,
      "Personen": 6680,
      "Region": 6681,
      "iful": 6682,
      "agree": 6683,
      "sty": 6684,
      "70": 6685,
      "ote": 6686,
      "Lösung": 6687,
      "Uns": 6688,
      "sweise": 6689,
      "Gäste": 6690,
      "ification": 6691,
      "läge": 6692,
      "ideo": 6693,
      "beiden": 6694,
      "ference": 6695,
      "unserem": 6696,
      "auen": 6697,
      "Bas": 6698,
      "einander": 6699,
      "technology": 6700,
      "2005": 6701,
      "betre": 6702,
      "Madam": 6703,
      "via": 6704,
      "gesagt": 6705,
      "keep": 6706,
      "friend": 6707,
      "gelegt": 6708,
      "customers": 6709,
      "IP": 6710,
      "Son": 6711,
      "raph": 6712,
      "Sü": 6713,
      "round": 6714,
      "grat": 6715,
      "Treaty": 6716,
      "ritte": 6717,
      "Entschließ": 6718,
      "tember": 6719,
      "attra": 6720,
      "asst": 6721,
      "isse": 6722,
      "reicht": 6723,
      "zogen": 6724,
      "increase": 6725,
      "Klim": 6726,
      "ume": 6727,
      "growth": 6728,
      "macht": 6729,
      "prepar": 6730,
      "politische": 6731,
      "ever": 6732,
      "mosp": 6733,
      "leit": 6734,
      "idence": 6735,
      "Verantwort": 6736,
      "standards": 6737,
      "Preis": 6738,
      "sw": 6739,
      "jähr": 6740,
      "groß": 6741,
      "opportunity": 6742,
      "rather": 6743,
      "reiche": 6744,
      "Sep": 6745,
      "Schluss": 6746,
      "Bank": 6747,
      "bzw": 6748,
      "ison": 6749,
      "Stre": 6750,
      "Produkte": 6751,
      "Dieses": 6752,
      "ffiz": 6753,
      "lear": 6754,
      "baren": 6755,
      "quite": 6756,
      "anst": 6757,
      "Pat": 6758,
      "activities": 6759,
      "anim": 6760,
      "building": 6761,
      "value": 6762,
      "sal": 6763,
      "Gemeinschaft": 6764,
      "idency": 6765,
      "Demokrat": 6766,
      "prä": 6767,
      "haus": 6768,
      "positive": 6769,
      "solid": 6770,
      "vision": 6771,
      "photo": 6772,
      "body": 6773,
      "Can": 6774,
      "host": 6775,
      "indem": 6776,
      "Mil": 6777,
      "weniger": 6778,
      "begrü": 6779,
      "autiful": 6780,
      "lon": 6781,
      "OR": 6782,
      "edom": 6783,
      "obje": 6784,
      "etwa": 6785,
      "Haushalts": 6786,
      "halte": 6787,
      "seem": 6788,
      "AP": 6789,
      "ruck": 6790,
      "four": 6791,
      "teilen": 6792,
      "sat": 6793,
      "front": 6794,
      "partners": 6795,
      "provided": 6796,
      "stain": 6797,
      "force": 6798,
      "ager": 6799,
      "Kosten": 6800,
      "mean": 6801,
      "Zust": 6802,
      "ideal": 6803,
      "constru": 6804,
      "Präsidentin": 6805,
      "resources": 6806,
      "daran": 6807,
      "standard": 6808,
      "Entwicklungs": 6809,
      "might": 6810,
      "öffentlichen": 6811,
      "ently": 6812,
      "Date": 6813,
      "Frei": 6814,
      "Schl": 6815,
      "Red": 6816,
      "came": 6817,
      "ona": 6818,
      "prochen": 6819,
      "ght": 6820,
      "hler": 6821,
      "Sa": 6822,
      "wün": 6823,
      "ka": 6824,
      "Sou": 6825,
      "cu": 6826,
      "team": 6827,
      "ckt": 6828,
      "uellen": 6829,
      "State": 6830,
      "gewähr": 6831,
      "EL": 6832,
      "gilt": 6833,
      "erwar": 6834,
      "behalf": 6835,
      "2004": 6836,
      "shop": 6837,
      "eded": 6838,
      "forderungen": 6839,
      "som": 6840,
      "having": 6841,
      "Sal": 6842,
      "Nov": 6843,
      "AD": 6844,
      "Bal": 6845,
      "persön": 6846,
      "kennen": 6847,
      "Members": 6848,
      "vert": 6849,
      "Deshalb": 6850,
      "erfolg": 6851,
      "framework": 6852,
      "Rates": 6853,
      "yet": 6854,
      "After": 6855,
      "troll": 6856,
      "apan": 6857,
      "ücksicht": 6858,
      "ension": 6859,
      "pool": 6860,
      "ämlich": 6861,
      "jeden": 6862,
      "Sozial": 6863,
      "Austr": 6864,
      "model": 6865,
      "raum": 6866,
      "iding": 6867,
      "bitte": 6868,
      "fragen": 6869,
      "September": 6870,
      "treat": 6871,
      "Stru": 6872,
      "gute": 6873,
      "mind": 6874,
      "night": 6875,
      "include": 6876,
      "hap": 6877,
      "schrift": 6878,
      "ibil": 6879,
      "verständ": 6880,
      "Schw": 6881,
      "educ": 6882,
      "content": 6883,
      "öffentlich": 6884,
      "nämlich": 6885,
      "amental": 6886,
      "ided": 6887,
      "signific": 6888,
      "utet": 6889,
      "gemacht": 6890,
      "kung": 6891,
      "members": 6892,
      "fang": 6893,
      "Pa": 6894,
      "left": 6895,
      "Verfahren": 6896,
      "kar": 6897,
      "One": 6898,
      "entscheiden": 6899,
      "ften": 6900,
      "fähr": 6901,
      "schl": 6902,
      "rechts": 6903,
      "bindung": 6904,
      "laub": 6905,
      "mail": 6906,
      "station": 6907,
      "request": 6908,
      "super": 6909,
      "ana": 6910,
      "Initi": 6911,
      "Priv": 6912,
      "manu": 6913,
      "leisten": 6914,
      "Erfahr": 6915,
      "altung": 6916,
      "sogar": 6917,
      "ladies": 6918,
      "Millionen": 6919,
      "stadt": 6920,
      "foc": 6921,
      "along": 6922,
      "border": 6923,
      "stück": 6924,
      "Europas": 6925,
      "times": 6926,
      "sichtlich": 6927,
      "ächlich": 6928,
      "legenheit": 6929,
      "gerade": 6930,
      "lat": 6931,
      "Geb": 6932,
      "Israel": 6933,
      "week": 6934,
      "wahl": 6935,
      "solution": 6936,
      "rop": 6937,
      "proposals": 6938,
      "Sel": 6939,
      "ric": 6940,
      "völker": 6941,
      "icken": 6942,
      "aufge": 6943,
      "recomm": 6944,
      "amendments": 6945,
      "beautiful": 6946,
      "words": 6947,
      "points": 6948,
      "mass": 6949,
      "Jahres": 6950,
      "Zugang": 6951,
      "198": 6952,
      "safety": 6953,
      "zeigen": 6954,
      "eren": 6955,
      "Punkt": 6956,
      "remain": 6957,
      "minutes": 6958,
      "ging": 6959,
      "tober": 6960,
      "Kap": 6961,
      "easy": 6962,
      "viol": 6963,
      "Institution": 6964,
      "appropr": 6965,
      "Ort": 6966,
      "imes": 6967,
      "check": 6968,
      "graph": 6969,
      "Tür": 6970,
      "2003": 6971,
      "ring": 6972,
      "above": 6973,
      "beral": 6974,
      "economy": 6975,
      "änger": 6976,
      "costs": 6977,
      "mess": 6978,
      "erziel": 6979,
      "Jo": 6980,
      "staat": 6981,
      "unterschied": 6982,
      "mm": 6983,
      "racy": 6984,
      "27": 6985,
      "ihn": 6986,
      "regel": 6987,
      "due": 6988,
      "ros": 6989,
      "zeichnet": 6990,
      "CD": 6991,
      "Wh": 6992,
      "cop": 6993,
      "others": 6994,
      "Deutschland": 6995,
      "thod": 6996,
      "meisten": 6997,
      "reserv": 6998,
      "adopted": 6999,
      "stant": 7000,
      "ebenfalls": 7001,
      "Che": 7002,
      "mobil": 7003,
      "Geld": 7004,
      "Hol": 7005,
      "Design": 7006,
      "Verhand": 7007,
      "object": 7008,
      "beginn": 7009,
      "Tats": 7010,
      "bew": 7011,
      "ify": 7012,
      "ihm": 7013,
      "demokrat": 7014,
      "brauchen": 7015,
      "charac": 7016,
      "verkehr": 7017,
      "Website": 7018,
      "einzu": 7019,
      "makes": 7020,
      "Unsere": 7021,
      "Dieser": 7022,
      "contact": 7023,
      "Prof": 7024,
      "Ebene": 7025,
      "seinem": 7026,
      "Eng": 7027,
      "Leist": 7028,
      "Janu": 7029,
      "return": 7030,
      "verbunden": 7031,
      "challen": 7032,
      "entire": 7033,
      "rate": 7034,
      "don": 7035,
      "Bezug": 7036,
      "minister": 7037,
      "opinion": 7038,
      "zunehmen": 7039,
      "einigen": 7040,
      "agricult": 7041,
      "website": 7042,
      "lar": 7043,
      "send": 7044,
      "OS": 7045,
      "moder": 7046,
      "Engl": 7047,
      "central": 7048,
      "sens": 7049,
      "unst": 7050,
      "never": 7051,
      "Qualität": 7052,
      "icial": 7053,
      "Verkehr": 7054,
      "opt": 7055,
      "läss": 7056,
      "Buch": 7057,
      "arbeitet": 7058,
      "Sub": 7059,
      "application": 7060,
      "heim": 7061,
      "Aussprache": 7062,
      "üt": 7063,
      "legislation": 7064,
      "past": 7065,
      "Rechte": 7066,
      "win": 7067,
      "democr": 7068,
      "Text": 7069,
      "sea": 7070,
      "rela": 7071,
      "nete": 7072,
      "unterstützt": 7073,
      "sof": 7074,
      "sites": 7075,
      "effective": 7076,
      "Instr": 7077,
      "istic": 7078,
      "ented": 7079,
      "bath": 7080,
      "projects": 7081,
      "Restaurant": 7082,
      "bour": 7083,
      "aurants": 7084,
      "laden": 7085,
      "heart": 7086,
      "mitt": 7087,
      "results": 7088,
      "prove": 7089,
      "ledge": 7090,
      "Christ": 7091,
      "schö": 7092,
      "freedom": 7093,
      "leis": 7094,
      "provides": 7095,
      "liches": 7096,
      "ames": 7097,
      "iled": 7098,
      "groups": 7099,
      "darin": 7100,
      "stimmen": 7101,
      "risk": 7102,
      "administr": 7103,
      "Nä": 7104,
      "Kam": 7105,
      "Just": 7106,
      "teile": 7107,
      "bahn": 7108,
      "responsibility": 7109,
      "künft": 7110,
      "berg": 7111,
      "attention": 7112,
      "conf": 7113,
      "erklär": 7114,
      "Off": 7115,
      "policies": 7116,
      "Nicht": 7117,
      "fung": 7118,
      "Mär": 7119,
      "platz": 7120,
      "concerned": 7121,
      "East": 7122,
      "forman": 7123,
      "Abstimmung": 7124,
      "unver": 7125,
      "stu": 7126,
      "perfect": 7127,
      "derzeit": 7128,
      "lease": 7129,
      "isiert": 7130,
      "Rei": 7131,
      "2001": 7132,
      "glaube": 7133,
      "nationalen": 7134,
      "Organisation": 7135,
      "herr": 7136,
      "komple": 7137,
      "gebung": 7138,
      "Meer": 7139,
      "structure": 7140,
      "total": 7141,
      "ständig": 7142,
      "bekannt": 7143,
      "Hö": 7144,
      "möglichen": 7145,
      "simply": 7146,
      "bare": 7147,
      "termin": 7148,
      "hens": 7149,
      "dürfen": 7150,
      "Früh": 7151,
      "Abkommen": 7152,
      "young": 7153,
      "infl": 7154,
      "beh": 7155,
      "Mail": 7156,
      "oting": 7157,
      "aged": 7158,
      "nichts": 7159,
      "step": 7160,
      "extra": 7161,
      "gas": 7162,
      "fordern": 7163,
      "cli": 7164,
      "cir": 7165,
      "ama": 7166,
      "offe": 7167,
      "Jahrhunder": 7168,
      "fish": 7169,
      "questions": 7170,
      "zä": 7171,
      "importance": 7172,
      "Beschäft": 7173,
      "society": 7174,
      "beispiel": 7175,
      "iers": 7176,
      "ene": 7177,
      "Benutz": 7178,
      "denken": 7179,
      "firm": 7180,
      "sse": 7181,
      "uth": 7182,
      "ift": 7183,
      "Verbraucher": 7184,
      "sollen": 7185,
      "dien": 7186,
      "context": 7187,
      "holiday": 7188,
      "link": 7189,
      "Kur": 7190,
      "ished": 7191,
      "Pra": 7192,
      "ihrem": 7193,
      "method": 7194,
      "natural": 7195,
      "environmental": 7196,
      "stor": 7197,
      "greater": 7198,
      "una": 7199,
      "Mor": 7200,
      "bleiben": 7201,
      "freund": 7202,
      "training": 7203,
      "drück": 7204,
      "keinen": 7205,
      "gestimmt": 7206,
      "ada": 7207,
      "Wach": 7208,
      "voted": 7209,
      "ench": 7210,
      "Groß": 7211,
      "Room": 7212,
      "ID": 7213,
      "Dok": 7214,
      "Dank": 7215,
      "Gesetz": 7216,
      "inge": 7217,
      "anderer": 7218,
      "wärt": 7219,
      "90": 7220,
      "kurz": 7221,
      "strategy": 7222,
      "lei": 7223,
      "increasing": 7224,
      "speziel": 7225,
      "zusätz": 7226,
      "griff": 7227,
      "ächst": 7228,
      "cultural": 7229,
      "onstr": 7230,
      "wenig": 7231,
      "forts": 7232,
      "hes": 7233,
      "Kolleg": 7234,
      "betrifft": 7235,
      "entliche": 7236,
      "uen": 7237,
      "verbess": 7238,
      "unkte": 7239,
      "zustellen": 7240,
      "arian": 7241,
      "Debat": 7242,
      "breakfast": 7243,
      "music": 7244,
      "IM": 7245,
      "llt": 7246,
      "bung": 7247,
      "mechan": 7248,
      "mitted": 7249,
      "sei": 7250,
      "dan": 7251,
      "spir": 7252,
      "principle": 7253,
      "PC": 7254,
      "tin": 7255,
      "aktiv": 7256,
      "Dam": 7257,
      "Schwe": 7258,
      "istan": 7259,
      "weiterhin": 7260,
      "assist": 7261,
      "answer": 7262,
      "uell": 7263,
      "Cor": 7264,
      "quick": 7265,
      "uz": 7266,
      "ported": 7267,
      "Strategie": 7268,
      "commod": 7269,
      "add": 7270,
      "unächst": 7271,
      "äter": 7272,
      "interess": 7273,
      "utzt": 7274,
      "ref": 7275,
      "passen": 7276,
      "affe": 7277,
      "Sicherheits": 7278,
      "looking": 7279,
      "Disk": 7280,
      "ball": 7281,
      "Fortsch": 7282,
      "aud": 7283,
      "setzt": 7284,
      "vement": 7285,
      "prec": 7286,
      "hnen": 7287,
      "clean": 7288,
      "inten": 7289,
      "weite": 7290,
      "May": 7291,
      "Bil": 7292,
      "manufact": 7293,
      "board": 7294,
      "geschlagen": 7295,
      "demand": 7296,
      "required": 7297,
      "uelle": 7298,
      "seits": 7299,
      "Apr": 7300,
      "responsible": 7301,
      "nu": 7302,
      "verfahren": 7303,
      "wirtschaftlichen": 7304,
      "changes": 7305,
      "mals": 7306,
      "Sitz": 7307,
      "Bem": 7308,
      "Ju": 7309,
      "Gesellschaft": 7310,
      "trolle": 7311,
      "schwer": 7312,
      "capital": 7313,
      "span": 7314,
      "struktur": 7315,
      "deutlich": 7316,
      "pages": 7317,
      "Sport": 7318,
      "2002": 7319,
      "hib": 7320,
      "Windows": 7321,
      "Schul": 7322,
      "Wohn": 7323,
      "Fund": 7324,
      "significant": 7325,
      "besten": 7326,
      "Änderungsan": 7327,
      "century": 7328,
      "Gover": 7329,
      "useum": 7330,
      "ocracy": 7331,
      "remo": 7332,
      "aden": 7333,
      "Klima": 7334,
      "safe": 7335,
      "posed": 7336,
      "sug": 7337,
      "wichtige": 7338,
      "share": 7339,
      "gestat": 7340,
      "ators": 7341,
      "ined": 7342,
      "try": 7343,
      "bedeutet": 7344,
      "meeting": 7345,
      "äl": 7346,
      "zehn": 7347,
      "moun": 7348,
      "clearly": 7349,
      "Stat": 7350,
      "Japan": 7351,
      "ichen": 7352,
      "lange": 7353,
      "terror": 7354,
      "benöt": 7355,
      "Gl": 7356,
      "Wel": 7357,
      "deshalb": 7358,
      "technical": 7359,
      "solche": 7360,
      "authorities": 7361,
      "Betrie": 7362,
      "essential": 7363,
      "Bezieh": 7364,
      "haltung": 7365,
      "verein": 7366,
      "nutzen": 7367,
      "Von": 7368,
      "November": 7369,
      "ehr": 7370,
      "continu": 7371,
      "By": 7372,
      "ites": 7373,
      "moment": 7374,
      "scho": 7375,
      "relax": 7376,
      "cast": 7377,
      "distrib": 7378,
      "boten": 7379,
      "hab": 7380,
      "Op": 7381,
      "grup": 7382,
      "aufgrund": 7383,
      "stum": 7384,
      "gratul": 7385,
      "gliche": 7386,
      "Foto": 7387,
      "aup": 7388,
      "wan": 7389,
      "General": 7390,
      "sustain": 7391,
      "pfung": 7392,
      "atal": 7393,
      "teilt": 7394,
      "Will": 7395,
      "bra": 7396,
      "space": 7397,
      "ucht": 7398,
      "lab": 7399,
      "fairs": 7400,
      "RE": 7401,
      "Tro": 7402,
      "according": 7403,
      "ulture": 7404,
      "cla": 7405,
      "stop": 7406,
      "achieve": 7407,
      "gebracht": 7408,
      "würden": 7409,
      "züglich": 7410,
      "loss": 7411,
      "active": 7412,
      "gehört": 7413,
      "acy": 7414,
      "First": 7415,
      "alter": 7416,
      "fundamental": 7417,
      "crimin": 7418,
      "internal": 7419,
      "Mitarbeit": 7420,
      "nature": 7421,
      "26": 7422,
      "äsent": 7423,
      "Förder": 7424,
      "Tele": 7425,
      "Insel": 7426,
      "Far": 7427,
      "funktion": 7428,
      "live": 7429,
      "Bevölker": 7430,
      "schre": 7431,
      "Menschenrechte": 7432,
      "Netz": 7433,
      "Industrie": 7434,
      "500": 7435,
      "pflicht": 7436,
      "inzip": 7437,
      "AM": 7438,
      "itäts": 7439,
      "Bre": 7440,
      "Prozess": 7441,
      "directly": 7442,
      "months": 7443,
      "fehl": 7444,
      "hörden": 7445,
      "longer": 7446,
      "Musik": 7447,
      "Demokratie": 7448,
      "facilities": 7449,
      "history": 7450,
      "April": 7451,
      "esen": 7452,
      "Richtung": 7453,
      "solutions": 7454,
      "frist": 7455,
      "erous": 7456,
      "zel": 7457,
      "nächsten": 7458,
      "Außen": 7459,
      "Ha": 7460,
      "Wert": 7461,
      "currently": 7462,
      "enough": 7463,
      "Ansicht": 7464,
      "Pub": 7465,
      "schluss": 7466,
      "Umsetzung": 7467,
      "proposed": 7468,
      "cure": 7469,
      "Sh": 7470,
      "Fern": 7471,
      "corre": 7472,
      "länd": 7473,
      "developed": 7474,
      "SE": 7475,
      "neuer": 7476,
      "Opt": 7477,
      "related": 7478,
      "subs": 7479,
      "events": 7480,
      "draw": 7481,
      "restaurant": 7482,
      "ables": 7483,
      "takt": 7484,
      "character": 7485,
      "unch": 7486,
      "Verbesser": 7487,
      "auszu": 7488,
      "civil": 7489,
      "Struktur": 7490,
      "yl": 7491,
      "interests": 7492,
      "Ira": 7493,
      "guests": 7494,
      "charge": 7495,
      "ought": 7496,
      "werde": 7497,
      "Steuer": 7498,
      "needed": 7499,
      "Herren": 7500,
      "Plan": 7501,
      "item": 7502,
      "Besuch": 7503,
      "fam": 7504,
      "requirements": 7505,
      "prevent": 7506,
      "regions": 7507,
      "language": 7508,
      "fight": 7509,
      "Nähe": 7510,
      "onen": 7511,
      "formance": 7512,
      "aging": 7513,
      "hm": 7514,
      "Govern": 7515,
      "normal": 7516,
      "Book": 7517,
      "greifen": 7518,
      "parties": 7519,
      "28": 7520,
      "lö": 7521,
      "Anwendung": 7522,
      "mbH": 7523,
      "tar": 7524,
      "aper": 7525,
      "weder": 7526,
      "allerdings": 7527,
      "umente": 7528,
      "condition": 7529,
      "From": 7530,
      "Kunst": 7531,
      "sition": 7532,
      "organisation": 7533,
      "recogn": 7534,
      "ano": 7535,
      "Please": 7536,
      "anti": 7537,
      "Ziele": 7538,
      "involved": 7539,
      "Parte": 7540,
      "lex": 7541,
      "volle": 7542,
      "combin": 7543,
      "themselves": 7544,
      "apply": 7545,
      "upon": 7546,
      "enthalten": 7547,
      "Bedingungen": 7548,
      "Verantwortung": 7549,
      "mob": 7550,
      "foreign": 7551,
      "gesetz": 7552,
      "contain": 7553,
      "beispielsweise": 7554,
      "Tages": 7555,
      "üssel": 7556,
      "fün": 7557,
      "Ide": 7558,
      "regulation": 7559,
      "lied": 7560,
      "type": 7561,
      "iellen": 7562,
      "iner": 7563,
      "hoffe": 7564,
      "va": 7565,
      "Vertr": 7566,
      "Brit": 7567,
      "chter": 7568,
      "democracy": 7569,
      "richtung": 7570,
      "Team": 7571,
      "comfortable": 7572,
      "competition": 7573,
      "card": 7574,
      "separ": 7575,
      "implementation": 7576,
      "wirkungen": 7577,
      "Dah": 7578,
      "ßt": 7579,
      "ception": 7580,
      "Russia": 7581,
      "center": 7582,
      "happen": 7583,
      "markets": 7584,
      "notwendig": 7585,
      "Aspe": 7586,
      "Paris": 7587,
      "Mot": 7588,
      "äu": 7589,
      "gemeinsamen": 7590,
      "extremely": 7591,
      "presented": 7592,
      "Emp": 7593,
      "bad": 7594,
      "tä": 7595,
      "hon": 7596,
      "competit": 7597,
      "anten": 7598,
      "Krit": 7599,
      "Version": 7600,
      "stead": 7601,
      "cam": 7602,
      "jeweil": 7603,
      "atch": 7604,
      "amt": 7605,
      "scheint": 7606,
      "hinder": 7607,
      "please": 7608,
      "Selbst": 7609,
      "eth": 7610,
      "efforts": 7611,
      "park": 7612,
      "nimmt": 7613,
      "cases": 7614,
      "held": 7615,
      "GmbH": 7616,
      "sozialen": 7617,
      "Vorschläge": 7618,
      "ält": 7619,
      "acc": 7620,
      "Wieder": 7621,
      "Aug": 7622,
      "etzen": 7623,
      "Du": 7624,
      "caus": 7625,
      "betra": 7626,
      "vielleicht": 7627,
      "Gebiet": 7628,
      "kleinen": 7629,
      "altern": 7630,
      "messen": 7631,
      "verwendet": 7632,
      "Erfolg": 7633,
      "Grundlage": 7634,
      "gemeinsam": 7635,
      "linien": 7636,
      "Interesse": 7637,
      "Erweiter": 7638,
      "Reihe": 7639,
      "llig": 7640,
      "www": 7641,
      "phone": 7642,
      "farm": 7643,
      "Aktiv": 7644,
      "friendly": 7645,
      "Einsatz": 7646,
      "South": 7647,
      "soon": 7648,
      "maxim": 7649,
      "Trans": 7650,
      "Kön": 7651,
      "unternehmen": 7652,
      "brit": 7653,
      "chem": 7654,
      "standen": 7655,
      "Geschichte": 7656,
      "kei": 7657,
      "illa": 7658,
      "berücksicht": 7659,
      "wider": 7660,
      "Frieden": 7661,
      "democratic": 7662,
      "clar": 7663,
      "erfü": 7664,
      "works": 7665,
      "peten": 7666,
      "fordert": 7667,
      "file": 7668,
      "hor": 7669,
      "bevor": 7670,
      "Wort": 7671,
      "thus": 7672,
      "lig": 7673,
      "dell": 7674,
      "ested": 7675,
      "Verf": 7676,
      "kor": 7677,
      "istischen": 7678,
      "Real": 7679,
      "minim": 7680,
      "Ihrem": 7681,
      "ermöglich": 7682,
      "dev": 7683,
      "mel": 7684,
      "rup": 7685,
      "France": 7686,
      "Nord": 7687,
      "Cour": 7688,
      "harmon": 7689,
      "Rad": 7690,
      "1999": 7691,
      "recommend": 7692,
      "Raum": 7693,
      "sitz": 7694,
      "appropriate": 7695,
      "--": 7696,
      "mand": 7697,
      "erreicht": 7698,
      "isher": 7699,
      "claim": 7700,
      "respe": 7701,
      "Möglichkeiten": 7702,
      "ME": 7703,
      "either": 7704,
      "actions": 7705,
      "Daher": 7706,
      "Außer": 7707,
      "Kir": 7708,
      "ax": 7709,
      "More": 7710,
      "ired": 7711,
      "CH": 7712,
      "previous": 7713,
      "Star": 7714,
      "sound": 7715,
      "ey": 7716,
      "höch": 7717,
      "ony": 7718,
      "Zus": 7719,
      "West": 7720,
      "atory": 7721,
      "indic": 7722,
      "gelten": 7723,
      "situated": 7724,
      "andid": 7725,
      "negotiations": 7726,
      "Wissen": 7727,
      "true": 7728,
      "Institutionen": 7729,
      "prise": 7730,
      "final": 7731,
      "Office": 7732,
      "Nie": 7733,
      "sucht": 7734,
      "35": 7735,
      "mid": 7736,
      "created": 7737,
      "Integr": 7738,
      "Kle": 7739,
      "yp": 7740,
      "merksam": 7741,
      "Debatte": 7742,
      "maintain": 7743,
      "Öff": 7744,
      "igungs": 7745,
      "unded": 7746,
      "Platz": 7747,
      "gleichen": 7748,
      "ctors": 7749,
      "ases": 7750,
      "Erklär": 7751,
      "everything": 7752,
      "Unser": 7753,
      "29": 7754,
      "neg": 7755,
      "schwier": 7756,
      "states": 7757,
      "Funktion": 7758,
      "kam": 7759,
      "entwickelt": 7760,
      "Ka": 7761,
      "American": 7762,
      "developing": 7763,
      "later": 7764,
      "lose": 7765,
      "Verwalt": 7766,
      "allgem": 7767,
      "Entscheidung": 7768,
      "Druck": 7769,
      "Damen": 7770,
      "seen": 7771,
      "ibr": 7772,
      "Arch": 7773,
      "commer": 7774,
      "French": 7775,
      "pict": 7776,
      "Inst": 7777,
      "danken": 7778,
      "immed": 7779,
      "disk": 7780,
      "exten": 7781,
      "vorsch": 7782,
      "befinden": 7783,
      "esten": 7784,
      "hout": 7785,
      "famous": 7786,
      "ination": 7787,
      "clos": 7788,
      "unique": 7789,
      "dialog": 7790,
      "prim": 7791,
      "demonstr": 7792,
      "modif": 7793,
      "arbeitung": 7794,
      "itens": 7795,
      "education": 7796,
      "monitor": 7797,
      "umfassen": 7798,
      "Up": 7799,
      "erwä": 7800,
      "additional": 7801,
      "anno": 7802,
      "achen": 7803,
      "Apart": 7804,
      "living": 7805,
      "avo": 7806,
      "funds": 7807,
      "weiß": 7808,
      "Cas": 7809,
      "verschiedene": 7810,
      "prices": 7811,
      "improve": 7812,
      "How": 7813,
      "links": 7814,
      "Blick": 7815,
      "Rechn": 7816,
      "Presidency": 7817,
      "könnten": 7818,
      "almost": 7819,
      "parts": 7820,
      "analys": 7821,
      "ruh": 7822,
      "Hinblick": 7823,
      "climate": 7824,
      "Har": 7825,
      "Inform": 7826,
      "Mitglieder": 7827,
      "accommod": 7828,
      "happ": 7829,
      "travel": 7830,
      "Lis": 7831,
      "achten": 7832,
      "ri": 7833,
      "unik": 7834,
      "hinter": 7835,
      "vorgeschlagen": 7836,
      "Dienstleistungen": 7837,
      "rich": 7838,
      "ature": 7839,
      "designed": 7840,
      "vic": 7841,
      "ingt": 7842,
      "included": 7843,
      "LE": 7844,
      "Minuten": 7845,
      "nehm": 7846,
      "expect": 7847,
      "Hoch": 7848,
      "weltweit": 7849,
      "45": 7850,
      "abge": 7851,
      "idea": 7852,
      "hung": 7853,
      "document": 7854,
      "gemeinsame": 7855,
      "bildung": 7856,
      "actually": 7857,
      "dre": 7858,
      "respon": 7859,
      "Kraft": 7860,
      "Diskuss": 7861,
      "gesellschaft": 7862,
      "hold": 7863,
      "verfügt": 7864,
      "euro": 7865,
      "hinzu": 7866,
      "pan": 7867,
      "Heraus": 7868,
      "ba": 7869,
      "heiß": 7870,
      "tats": 7871,
      "reib": 7872,
      "Luft": 7873,
      "ermöglicht": 7874,
      "Frühstück": 7875,
      "mission": 7876,
      "hatten": 7877,
      "Auswirkungen": 7878,
      "spräsident": 7879,
      "haps": 7880,
      "knowledge": 7881,
      "för": 7882,
      "Änderungsantrag": 7883,
      "rieben": 7884,
      "Regionen": 7885,
      "five": 7886,
      "dependent": 7887,
      "encour": 7888,
      "iffen": 7889,
      "Doch": 7890,
      "frü": 7891,
      "communication": 7892,
      "receive": 7893,
      "Vertre": 7894,
      "ürz": 7895,
      "uren": 7896,
      "helfen": 7897,
      "workers": 7898,
      "walk": 7899,
      "Bü": 7900,
      "chs": 7901,
      "Innen": 7902,
      "intens": 7903,
      "early": 7904,
      "jud": 7905,
      "jenigen": 7906,
      "ceed": 7907,
      "Landes": 7908,
      "ebenso": 7909,
      "Met": 7910,
      "associ": 7911,
      "iting": 7912,
      "ielle": 7913,
      "dict": 7914,
      "Abgeordneten": 7915,
      "cen": 7916,
      "fortun": 7917,
      "Programme": 7918,
      "gain": 7919,
      "schriften": 7920,
      "initiative": 7921,
      "cies": 7922,
      "krä": 7923,
      "Tatsache": 7924,
      "bisher": 7925,
      "schie": 7926,
      "Proto": 7927,
      "seite": 7928,
      "protect": 7929,
      "aler": 7930,
      "entsch": 7931,
      "leading": 7932,
      "erforderlich": 7933,
      "erhö": 7934,
      "Familien": 7935,
      "Verhandlungen": 7936,
      "fu": 7937,
      "isieren": 7938,
      "takes": 7939,
      "outside": 7940,
      "chsel": 7941,
      "fünf": 7942,
      "sprech": 7943,
      "Ausdruck": 7944,
      "gab": 7945,
      "professional": 7946,
      "Ergebnis": 7947,
      "partner": 7948,
      "Portug": 7949,
      "procedure": 7950,
      "Haf": 7951,
      "kra": 7952,
      "bedeuten": 7953,
      "amerikan": 7954,
      "race": 7955,
      "spielen": 7956,
      "Lond": 7957,
      "built": 7958,
      "zone": 7959,
      "ilar": 7960,
      "gesamten": 7961,
      "pal": 7962,
      "users": 7963,
      "adurch": 7964,
      "verantwort": 7965,
      "Einzel": 7966,
      "itions": 7967,
      "Host": 7968,
      "tack": 7969,
      "197": 7970,
      "Schritt": 7971,
      "August": 7972,
      "bru": 7973,
      "Dan": 7974,
      "hend": 7975,
      "Binnen": 7976,
      "majority": 7977,
      "suggest": 7978,
      "enable": 7979,
      "Liste": 7980,
      "exclus": 7981,
      "Forschung": 7982,
      "features": 7983,
      "einzelnen": 7984,
      "refle": 7985,
      "Net": 7986,
      "amount": 7987,
      "darum": 7988,
      "mp": 7989,
      "genie": 7990,
      "original": 7991,
      "Zur": 7992,
      "später": 7993,
      "Mob": 7994,
      "Seit": 7995,
      "resol": 7996,
      "Iran": 7997,
      "North": 7998,
      "mag": 7999,
      "itionen": 8000,
      "denke": 8001,
      "took": 8002,
      "emphas": 8003,
      "getr": 8004,
      "Kolleginnen": 8005,
      "hours": 8006,
      "erhe": 8007,
      "Zentrum": 8008,
      "spricht": 8009,
      "größer": 8010,
      "Gruppe": 8011,
      "lok": 8012,
      "ausgestat": 8013,
      "zif": 8014,
      "ffer": 8015,
      "bef": 8016,
      "läs": 8017,
      "cru": 8018,
      "Bahn": 8019,
      "schön": 8020,
      "ending": 8021,
      "entre": 8022,
      "auber": 8023,
      "Ris": 8024,
      "Online": 8025,
      "cep": 8026,
      "vin": 8027,
      "Vis": 8028,
      "aster": 8029,
      "doing": 8030,
      "customer": 8031,
      "impact": 8032,
      "Dialog": 8033,
      "throughout": 8034,
      "mitteln": 8035,
      "Ster": 8036,
      "High": 8037,
      "weiteren": 8038,
      "ald": 8039,
      "guarantee": 8040,
      "ternal": 8041,
      "angenommen": 8042,
      "Antwort": 8043,
      "Führ": 8044,
      "connection": 8045,
      "Außerdem": 8046,
      "änden": 8047,
      "Terror": 8048,
      "ländern": 8049,
      "Zum": 8050,
      "ST": 8051,
      "folge": 8052,
      "Änderungsanträge": 8053,
      "wunder": 8054,
      "relig": 8055,
      "corpor": 8056,
      "club": 8057,
      "indest": 8058,
      "across": 8059,
      "London": 8060,
      "präsent": 8061,
      "party": 8062,
      "media": 8063,
      "publish": 8064,
      "profit": 8065,
      "cross": 8066,
      "igration": 8067,
      "thre": 8068,
      "Werk": 8069,
      "Bereichen": 8070,
      "neben": 8071,
      "bian": 8072,
      "wachsen": 8073,
      "strengthen": 8074,
      "Gra": 8075,
      "traditional": 8076,
      "internationale": 8077,
      "forms": 8078,
      "tic": 8079,
      "Beg": 8080,
      "akzept": 8081,
      "game": 8082,
      "search": 8083,
      "writing": 8084,
      "reiben": 8085,
      "mentioned": 8086,
      "Staats": 8087,
      "ij": 8088,
      "certainly": 8089,
      "investment": 8090,
      "jedem": 8091,
      "kämpfung": 8092,
      "Weiter": 8093,
      "consequ": 8094,
      "schle": 8095,
      "Handel": 8096,
      "rates": 8097,
      "ändert": 8098,
      "effiz": 8099,
      "ült": 8100,
      "orf": 8101,
      "sex": 8102,
      "Univers": 8103,
      "fähigkeit": 8104,
      "usst": 8105,
      "Bevölkerung": 8106,
      "konnte": 8107,
      "hätte": 8108,
      "aring": 8109,
      "dle": 8110,
      "performance": 8111,
      "tran": 8112,
      "Fischere": 8113,
      "Play": 8114,
      "existing": 8115,
      "richtig": 8116,
      "Vereinigten": 8117,
      "gegenwärt": 8118,
      "although": 8119,
      "Beziehungen": 8120,
      "Mag": 8121,
      "gän": 8122,
      "öst": 8123,
      "colleag": 8124,
      "itten": 8125,
      "Handels": 8126,
      "English": 8127,
      "onom": 8128,
      "Let": 8129,
      "tle": 8130,
      "ull": 8131,
      "Aben": 8132,
      "formen": 8133,
      "programmes": 8134,
      "gleichzeitig": 8135,
      "Turkey": 8136,
      "parliament": 8137,
      "leistet": 8138,
      "prakt": 8139,
      "complex": 8140,
      "dete": 8141,
      "Verbindung": 8142,
      "gemäß": 8143,
      "Proz": 8144,
      "anzen": 8145,
      "heißt": 8146,
      "PE": 8147,
      "heut": 8148,
      "300": 8149,
      "Verordnung": 8150,
      "coordin": 8151,
      "concerns": 8152,
      "cript": 8153,
      "Akt": 8154,
      "ule": 8155,
      "iens": 8156,
      "Government": 8157,
      "Fuß": 8158,
      "länder": 8159,
      "code": 8160,
      "wichtigen": 8161,
      "lux": 8162,
      "ping": 8163,
      "sent": 8164,
      "enor": 8165,
      "Centr": 8166,
      "fan": 8167,
      "teid": 8168,
      "ush": 8169,
      "letzt": 8170,
      "haft": 8171,
      "Interessen": 8172,
      "barkeit": 8173,
      "confl": 8174,
      "mein": 8175,
      "ausch": 8176,
      "image": 8177,
      "correct": 8178,
      "plant": 8179,
      "aware": 8180,
      "Themen": 8181,
      "culture": 8182,
      "America": 8183,
      "zeugen": 8184,
      "assess": 8185,
      "kn": 8186,
      "heraus": 8187,
      "igte": 8188,
      "transfer": 8189,
      "cker": 8190,
      "bleibt": 8191,
      "iversit": 8192,
      "concerning": 8193,
      "fs": 8194,
      "neut": 8195,
      "rund": 8196,
      "jede": 8197,
      "computer": 8198,
      "Beitrag": 8199,
      "Sor": 8200,
      "absolute": 8201,
      "committee": 8202,
      "Förderung": 8203,
      "community": 8204,
      "Aufgabe": 8205,
      "abon": 8206,
      "hase": 8207,
      "DV": 8208,
      "ari": 8209,
      "military": 8210,
      "See": 8211,
      "Court": 8212,
      "Haushalt": 8213,
      "Krise": 8214,
      "digital": 8215,
      "Kontrolle": 8216,
      "Türkei": 8217,
      "established": 8218,
      "reasons": 8219,
      "handlung": 8220,
      "iment": 8221,
      "cri": 8222,
      "speed": 8223,
      "amb": 8224,
      "bekommen": 8225,
      "Verpflicht": 8226,
      "ären": 8227,
      "nothing": 8228,
      "agreements": 8229,
      "kleine": 8230,
      "Standard": 8231,
      "Kampf": 8232,
      "Wettbewerbs": 8233,
      "joint": 8234,
      "completely": 8235,
      "population": 8236,
      "Rel": 8237,
      "internet": 8238,
      "verständlich": 8239,
      "west": 8240,
      "transl": 8241,
      "decisions": 8242,
      "construction": 8243,
      "unabhäng": 8244,
      "Reform": 8245,
      "Febru": 8246,
      "div": 8247,
      "richtungen": 8248,
      "extens": 8249,
      "archite": 8250,
      "includes": 8251,
      "Barcel": 8252,
      "sag": 8253,
      "jahr": 8254,
      "Stabil": 8255,
      "approv": 8256,
      "affung": 8257,
      "garant": 8258,
      "krit": 8259,
      "practice": 8260,
      "gerichtet": 8261,
      "Dec": 8262,
      "Kor": 8263,
      "meinen": 8264,
      "box": 8265,
      "pleas": 8266,
      "basic": 8267,
      "pet": 8268,
      "official": 8269,
      "Home": 8270,
      "warm": 8271,
      "ieb": 8272,
      "fallen": 8273,
      "iterr": 8274,
      "fal": 8275,
      "path": 8276,
      "nahe": 8277,
      "acqu": 8278,
      "ifel": 8279,
      "bert": 8280,
      "rachten": 8281,
      "31": 8282,
      "enlarge": 8283,
      "PL": 8284,
      "Schlussel": 8285,
      "amera": 8286,
      "style": 8287,
      "alb": 8288,
      "Lux": 8289,
      "fli": 8290,
      "capac": 8291,
      "ires": 8292,
      "lässt": 8293,
      "ester": 8294,
      "unseres": 8295,
      "pfen": 8296,
      "got": 8297,
      "consult": 8298,
      "files": 8299,
      "equipped": 8300,
      "credit": 8301,
      "guest": 8302,
      "Ausschusses": 8303,
      "pon": 8304,
      "allows": 8305,
      "kraft": 8306,
      "oblig": 8307,
      "anzös": 8308,
      "handeln": 8309,
      "bedingungen": 8310,
      "bald": 8311,
      "sense": 8312,
      "note": 8313,
      "Col": 8314,
      "adv": 8315,
      "esh": 8316,
      "vö": 8317,
      "ET": 8318,
      "Club": 8319,
      "jobs": 8320,
      "click": 8321,
      "Agen": 8322,
      "City": 8323,
      "trotz": 8324,
      "Strand": 8325,
      "Erweiterung": 8326,
      "plann": 8327,
      "gangenen": 8328,
      "Since": 8329,
      "sieht": 8330,
      "kulture": 8331,
      "ktive": 8332,
      "unities": 8333,
      "ini": 8334,
      "jedes": 8335,
      "Management": 8336,
      "choice": 8337,
      "undes": 8338,
      "conclus": 8339,
      "Thank": 8340,
      "196": 8341,
      "integration": 8342,
      "simple": 8343,
      "unsch": 8344,
      "fail": 8345,
      "Mitarbeiter": 8346,
      "relev": 8347,
      ".,": 8348,
      "values": 8349,
      "prüfen": 8350,
      "ava": 8351,
      "worten": 8352,
      "gesamt": 8353,
      "objectives": 8354,
      "hohe": 8355,
      "stage": 8356,
      "igent": 8357,
      "package": 8358,
      "wirtschaftliche": 8359,
      "poor": 8360,
      "flä": 8361,
      "Pass": 8362,
      "Enter": 8363,
      "Folgen": 8364,
      "band": 8365,
      "Behörden": 8366,
      "received": 8367,
      "Entschließung": 8368,
      "richten": 8369,
      "double": 8370,
      "guide": 8371,
      "Nutzung": 8372,
      "cul": 8373,
      "immungen": 8374,
      "gal": 8375,
      "satis": 8376,
      "aspe": 8377,
      "Anal": 8378,
      "MS": 8379,
      "Lisbon": 8380,
      "itness": 8381,
      "alte": 8382,
      "ological": 8383,
      "regarding": 8384,
      "Don": 8385,
      "Reise": 8386,
      "ills": 8387,
      "ufig": 8388,
      "mend": 8389,
      "Dokument": 8390,
      "ios": 8391,
      "Bur": 8392,
      "hotels": 8393,
      "jour": 8394,
      "wise": 8395,
      "antic": 8396,
      "Ham": 8397,
      "Pan": 8398,
      "equipment": 8399,
      "Global": 8400,
      "tempor": 8401,
      "applications": 8402,
      "spect": 8403,
      "door": 8404,
      "efficient": 8405,
      "Benutzer": 8406,
      "OL": 8407,
      "gefähr": 8408,
      "gelegen": 8409,
      "eller": 8410,
      "move": 8411,
      "ris": 8412,
      "purch": 8413,
      "ersch": 8414,
      "Volks": 8415,
      "rom": 8416,
      "Prior": 8417,
      "industrial": 8418,
      "Frankreich": 8419,
      "airport": 8420,
      "buch": 8421,
      "Server": 8422,
      "Aufen": 8423,
      "download": 8424,
      "ieben": 8425,
      "Ober": 8426,
      "atmosp": 8427,
      "popular": 8428,
      "Some": 8429,
      "benefit": 8430,
      "Wochen": 8431,
      "Augen": 8432,
      "territ": 8433,
      "wichtigsten": 8434,
      "Lösungen": 8435,
      "agricultural": 8436,
      "sun": 8437,
      "potential": 8438,
      "Les": 8439,
      "Aufenth": 8440,
      "aner": 8441,
      "Ukra": 8442,
      "Here": 8443,
      "Liss": 8444,
      "ón": 8445,
      "instrument": 8446,
      "Damit": 8447,
      "pite": 8448,
      "Notwend": 8449,
      "Veranst": 8450,
      "publik": 8451,
      "broad": 8452,
      "gerne": 8453,
      "seas": 8454,
      "engine": 8455,
      "south": 8456,
      "Personal": 8457,
      "Wachstum": 8458,
      "prob": 8459,
      "regular": 8460,
      "Fur": 8461,
      "Pla": 8462,
      "nice": 8463,
      "treatment": 8464,
      "hafen": 8465,
      "Mich": 8466,
      "Bitte": 8467,
      "rid": 8468,
      "former": 8469,
      "objective": 8470,
      "Informations": 8471,
      "prozess": 8472,
      "Mer": 8473,
      "series": 8474,
      "ennung": 8475,
      "reports": 8476,
      "Stunden": 8477,
      "Forder": 8478,
      "wonder": 8479,
      "mehrere": 8480,
      "appear": 8481,
      "respond": 8482,
      "gy": 8483,
      "limited": 8484,
      "Sto": 8485,
      "quickly": 8486,
      "fördern": 8487,
      "wobei": 8488,
      "below": 8489,
      "vertr": 8490,
      "Fach": 8491,
      "learn": 8492,
      "wenden": 8493,
      "goods": 8494,
      "ograph": 8495,
      "Auswahl": 8496,
      "hinsichtlich": 8497,
      "experien": 8498,
      "suit": 8499,
      "icles": 8500,
      "Now": 8501,
      "iko": 8502,
      "verg": 8503,
      "breit": 8504,
      "floor": 8505,
      "covered": 8506,
      "fahrt": 8507,
      "beein": 8508,
      "creation": 8509,
      "nachhalt": 8510,
      "bezüglich": 8511,
      "stellungen": 8512,
      "itel": 8513,
      "nissen": 8514,
      "örper": 8515,
      "counter": 8516,
      "figur": 8517,
      "zahlen": 8518,
      "Get": 8519,
      "Verbesserung": 8520,
      "profession": 8521,
      "Lissabon": 8522,
      "Affairs": 8523,
      "Business": 8524,
      "stoff": 8525,
      "ganze": 8526,
      "Kern": 8527,
      "ganzen": 8528,
      "angemessen": 8529,
      "promise": 8530,
      "fortunately": 8531,
      "rail": 8532,
      "spac": 8533,
      "enthält": 8534,
      "gerä": 8535,
      "entwickeln": 8536,
      "san": 8537,
      "film": 8538,
      "ico": 8539,
      "Gree": 8540,
      "liz": 8541,
      "Innov": 8542,
      "mis": 8543,
      "ski": 8544,
      "Gesundheit": 8545,
      "successful": 8546,
      "öhn": 8547,
      "Mic": 8548,
      "beteil": 8549,
      "Binnenmarkt": 8550,
      "huge": 8551,
      "Di": 8552,
      "ermöglichen": 8553,
      "brigen": 8554,
      "Gew": 8555,
      "Macht": 8556,
      "focus": 8557,
      "rein": 8558,
      "gelt": 8559,
      "genannten": 8560,
      "placed": 8561,
      "Barcelona": 8562,
      "geeig": 8563,
      "Central": 8564,
      "contains": 8565,
      "achieved": 8566,
      "plies": 8567,
      "inne": 8568,
      "spar": 8569,
      "PS": 8570,
      "seems": 8571,
      "Bro": 8572,
      "garden": 8573,
      "register": 8574,
      "indeed": 8575,
      "ipl": 8576,
      "Anfang": 8577,
      "Konferenz": 8578,
      "June": 8579,
      "mobile": 8580,
      "six": 8581,
      "dynam": 8582,
      "Material": 8583,
      "irgend": 8584,
      "Tage": 8585,
      "onnen": 8586,
      "recently": 8587,
      "ope": 8588,
      "nation": 8589,
      "deliver": 8590,
      "pie": 8591,
      "sterreich": 8592,
      "erlau": 8593,
      "fonds": 8594,
      "oppel": 8595,
      "zy": 8596,
      "Schaffung": 8597,
      "immen": 8598,
      "ends": 8599,
      "office": 8600,
      "Lauf": 8601,
      "gewä": 8602,
      "erweise": 8603,
      "erster": 8604,
      "exe": 8605,
      "Krieg": 8606,
      "stens": 8607,
      "steller": 8608,
      "Ferien": 8609,
      "Angebot": 8610,
      "feld": 8611,
      "size": 8612,
      "Social": 8613,
      "Amend": 8614,
      "dring": 8615,
      "Liefer": 8616,
      "dat": 8617,
      "news": 8618,
      "Somm": 8619,
      "Ok": 8620,
      "hoben": 8621,
      "levels": 8622,
      "beginning": 8623,
      "exchange": 8624,
      "haupt": 8625,
      "scient": 8626,
      "highly": 8627,
      "Miss": 8628,
      "schließend": 8629,
      "dialogue": 8630,
      "Eur": 8631,
      "Roman": 8632,
      "furn": 8633,
      "Finally": 8634,
      "places": 8635,
      "smo": 8636,
      "Sc": 8637,
      "Ergebnisse": 8638,
      "kan": 8639,
      "Ca": 8640,
      "Nat": 8641,
      "creen": 8642,
      "added": 8643,
      "sterdam": 8644,
      "oil": 8645,
      "Yor": 8646,
      "congratul": 8647,
      "Süd": 8648,
      "IL": 8649,
      "Lat": 8650,
      "Aut": 8651,
      "Gelegenheit": 8652,
      "Russland": 8653,
      "iveness": 8654,
      "Verwendung": 8655,
      "Bad": 8656,
      "ife": 8657,
      "Amsterdam": 8658,
      "Sil": 8659,
      "asked": 8660,
      "gefunden": 8661,
      "Super": 8662,
      "stances": 8663,
      "vorschriften": 8664,
      "everyone": 8665,
      "koll": 8666,
      "treffen": 8667,
      "verfüg": 8668,
      "video": 8669,
      "export": 8670,
      "Darüber": 8671,
      "wertungen": 8672,
      "häre": 8673,
      "wood": 8674,
      "governments": 8675,
      "Solid": 8676,
      "völlig": 8677,
      "arm": 8678,
      "attem": 8679,
      "Initiative": 8680,
      "relevant": 8681,
      "Cap": 8682,
      "SS": 8683,
      "Oc": 8684,
      "Arbeitspl": 8685,
      "Woche": 8686,
      "verbessern": 8687,
      "direction": 8688,
      "ured": 8689,
      "FR": 8690,
      "server": 8691,
      "TH": 8692,
      "balance": 8693,
      "Transport": 8694,
      "Fehler": 8695,
      "aving": 8696,
      "Exper": 8697,
      "konkre": 8698,
      "einzig": 8699,
      "Notwendigkeit": 8700,
      "Well": 8701,
      "whose": 8702,
      "union": 8703,
      "Linux": 8704,
      "nern": 8705,
      "Anzahl": 8706,
      "Voraus": 8707,
      "commercial": 8708,
      "aufzu": 8709,
      "üsse": 8710,
      "increased": 8711,
      "soziale": 8712,
      "verwenden": 8713,
      "grundlegen": 8714,
      "agreed": 8715,
      "UR": 8716,
      "letter": 8717,
      "Gip": 8718,
      "theless": 8719,
      "eigene": 8720,
      "Mac": 8721,
      "fix": 8722,
      "wall": 8723,
      "carried": 8724,
      "IV": 8725,
      "Herzen": 8726,
      "tliche": 8727,
      "Tor": 8728,
      "phys": 8729,
      "stress": 8730,
      "großer": 8731,
      "dang": 8732,
      "guten": 8733,
      "gehören": 8734,
      "aul": 8735,
      "consumers": 8736,
      "higher": 8737,
      "supply": 8738,
      "shows": 8739,
      "quar": 8740,
      "wohn": 8741,
      "klus": 8742,
      "ially": 8743,
      "stic": 8744,
      "offenen": 8745,
      "keyword": 8746,
      "Gewalt": 8747,
      "subsid": 8748,
      "principles": 8749,
      "Post": 8750,
      "mem": 8751,
      "Hinter": 8752,
      "pret": 8753,
      "Neu": 8754,
      "erve": 8755,
      "aschinen": 8756,
      "schließen": 8757,
      "isted": 8758,
      "Eigen": 8759,
      "Berg": 8760,
      "verfügen": 8761,
      "verstär": 8762,
      "condu": 8763,
      "Sim": 8764,
      "spezif": 8765,
      "Zeitpunkt": 8766,
      "Cal": 8767,
      "setting": 8768,
      "istische": 8769,
      "Second": 8770,
      "amendment": 8771,
      "stag": 8772,
      "source": 8773,
      "plat": 8774,
      "similar": 8775,
      "imming": 8776,
      "sicherheit": 8777,
      "bestät": 8778,
      "arg": 8779,
      "sustainable": 8780,
      "Familie": 8781,
      "grenz": 8782,
      "günst": 8783,
      "ffet": 8784,
      "considered": 8785,
      "schnitt": 8786,
      "dro": 8787,
      "Jugend": 8788,
      "ero": 8789,
      "reviews": 8790,
      "Further": 8791,
      "worth": 8792,
      "abor": 8793,
      "pflich": 8794,
      "possibility": 8795,
      "veh": 8796,
      "wissenschaft": 8797,
      "Män": 8798,
      "diskut": 8799,
      "pain": 8800,
      "gesprochen": 8801,
      "nä": 8802,
      "choose": 8803,
      "perhaps": 8804,
      "Gemeinschafts": 8805,
      "größten": 8806,
      "lam": 8807,
      "nuclear": 8808,
      "commitment": 8809,
      "zeugt": 8810,
      "Of": 8811,
      "Tat": 8812,
      "stark": 8813,
      "mod": 8814,
      "maßnahmen": 8815,
      "went": 8816,
      "Develop": 8817,
      "status": 8818,
      "Mai": 8819,
      "leb": 8820,
      "meinem": 8821,
      "materials": 8822,
      "Golf": 8823,
      "Juni": 8824,
      "volution": 8825,
      "Article": 8826,
      "Maß": 8827,
      "itation": 8828,
      "Änderungen": 8829,
      "circ": 8830,
      "ähn": 8831,
      "Überein": 8832,
      "closed": 8833,
      "categor": 8834,
      "32": 8835,
      "effects": 8836,
      "Therefore": 8837,
      "atast": 8838,
      "zunächst": 8839,
      "Sum": 8840,
      "wählen": 8841,
      "riften": 8842,
      "mäßig": 8843,
      "gesamte": 8844,
      "Museum": 8845,
      "elekt": 8846,
      "thanks": 8847,
      "mä": 8848,
      "matters": 8849,
      "iglich": 8850,
      "vorhand": 8851,
      "trip": 8852,
      "Hy": 8853,
      "shown": 8854,
      "Auss": 8855,
      "ption": 8856,
      "36": 8857,
      "Nieder": 8858,
      "aspects": 8859,
      "Dom": 8860,
      "stein": 8861,
      "tatsächlich": 8862,
      "iation": 8863,
      "green": 8864,
      "sorgen": 8865,
      "xis": 8866,
      "innovative": 8867,
      "EM": 8868,
      "Zw": 8869,
      "spruch": 8870,
      "orient": 8871,
      "scht": 8872,
      "Erfahrung": 8873,
      "Regierungen": 8874,
      "Wahr": 8875,
      "rought": 8876,
      "tool": 8877,
      "Debian": 8878,
      "frieden": 8879,
      "Spain": 8880,
      "promote": 8881,
      "Pf": 8882,
      "HT": 8883,
      "fält": 8884,
      "gült": 8885,
      "prepared": 8886,
      "ehm": 8887,
      "Vertrags": 8888,
      "Open": 8889,
      "obtain": 8890,
      "Koso": 8891,
      "Agr": 8892,
      "Produktion": 8893,
      "capacity": 8894,
      "iterrane": 8895,
      "sourcen": 8896,
      "König": 8897,
      "Ph": 8898,
      "kü": 8899,
      "sufficient": 8900,
      "ausschuss": 8901,
      "freien": 8902,
      "Während": 8903,
      "Neben": 8904,
      "liance": 8905,
      "usion": 8906,
      "Umgebung": 8907,
      "eindeut": 8908,
      "latest": 8909,
      "Einführung": 8910,
      "behind": 8911,
      "Beschäftigung": 8912,
      "lower": 8913,
      "tung": 8914,
      "schriftlich": 8915,
      "ique": 8916,
      "details": 8917,
      "summer": 8918,
      "mented": 8919,
      "uchen": 8920,
      "opportunities": 8921,
      "artige": 8922,
      "Position": 8923,
      "train": 8924,
      "draft": 8925,
      "registr": 8926,
      "öffnet": 8927,
      "vertreten": 8928,
      "bauen": 8929,
      "Konfli": 8930,
      "print": 8931,
      "pressure": 8932,
      "akter": 8933,
      "gestell": 8934,
      "response": 8935,
      "Loc": 8936,
      "Gesundheits": 8937,
      "Republic": 8938,
      "Italy": 8939,
      "hne": 8940,
      "kit": 8941,
      "thin": 8942,
      "Stellung": 8943,
      "Kommunik": 8944,
      "Got": 8945,
      "ierenden": 8946,
      "sofort": 8947,
      "Sam": 8948,
      "ufen": 8949,
      "Kontakt": 8950,
      "Computer": 8951,
      "mbol": 8952,
      "external": 8953,
      "verstehen": 8954,
      "Film": 8955,
      "death": 8956,
      "contract": 8957,
      "York": 8958,
      "providing": 8959,
      "determin": 8960,
      "Anwend": 8961,
      "ki": 8962,
      "ored": 8963,
      "review": 8964,
      "Cre": 8965,
      "iplom": 8966,
      "hindern": 8967,
      "reached": 8968,
      "accommodation": 8969,
      "rang": 8970,
      "Install": 8971,
      "Rot": 8972,
      "DVD": 8973,
      "Dabei": 8974,
      "Integration": 8975,
      "Leit": 8976,
      "äußerst": 8977,
      "Vereinbar": 8978,
      "atmosphere": 8979,
      "easily": 8980,
      "exhib": 8981,
      "1998": 8982,
      "spo": 8983,
      "empf": 8984,
      "arity": 8985,
      "WTO": 8986,
      "cup": 8987,
      "ühm": 8988,
      "ses": 8989,
      "played": 8990,
      "decided": 8991,
      "lies": 8992,
      "deck": 8993,
      "bestimmte": 8994,
      "uted": 8995,
      "Ratspräsident": 8996,
      "hohen": 8997,
      "Africa": 8998,
      "Bul": 8999,
      "Market": 9000,
      "reduce": 9001,
      "ault": 9002,
      "ney": 9003,
      "Systems": 9004,
      "rema": 9005,
      "Party": 9006,
      "stands": 9007,
      "SP": 9008,
      "option": 9009,
      "Eing": 9010,
      "concept": 9011,
      "adap": 9012,
      "AB": 9013,
      "produced": 9014,
      "criter": 9015,
      "somit": 9016,
      "Val": 9017,
      "beschäft": 9018,
      "Wettbewerb": 9019,
      "Aktivitäten": 9020,
      "ette": 9021,
      "lediglich": 9022,
      "Sprache": 9023,
      "liberal": 9024,
      "arily": 9025,
      "legung": 9026,
      "block": 9027,
      "talk": 9028,
      "Dez": 9029,
      "Del": 9030,
      "gewährleisten": 9031,
      "Höhe": 9032,
      "trägt": 9033,
      "aust": 9034,
      "cou": 9035,
      "verpflich": 9036,
      "Wein": 9037,
      "sl": 9038,
      "fluss": 9039,
      "British": 9040,
      "fehlen": 9041,
      "ado": 9042,
      "yer": 9043,
      "bein": 9044,
      "neigh": 9045,
      "compre": 9046,
      "istics": 9047,
      "lock": 9048,
      "bringt": 9049,
      "Medien": 9050,
      "ierter": 9051,
      "äude": 9052,
      "Convention": 9053,
      "ees": 9054,
      "secure": 9055,
      "Italien": 9056,
      "reading": 9057,
      "ark": 9058,
      "48": 9059,
      "wünschen": 9060,
      "defen": 9061,
      "erfolgreich": 9062,
      "standing": 9063,
      "submitted": 9064,
      "March": 9065,
      "Drit": 9066,
      "hören": 9067,
      "virt": 9068,
      "sprechend": 9069,
      "vollen": 9070,
      "obwohl": 9071,
      "Ukraine": 9072,
      "Sup": 9073,
      "gives": 9074,
      "uit": 9075,
      "bey": 9076,
      "December": 9077,
      "property": 9078,
      "ibilities": 9079,
      "versuchen": 9080,
      "Flughafen": 9081,
      "Down": 9082,
      "announ": 9083,
      "Services": 9084,
      "este": 9085,
      "lect": 9086,
      "record": 9087,
      "Oper": 9088,
      "suffer": 9089,
      "75": 9090,
      "gets": 9091,
      "bestimmten": 9092,
      "Sicht": 9093,
      "priority": 9094,
      "arrange": 9095,
      "Tät": 9096,
      "enlargement": 9097,
      "Bra": 9098,
      "issions": 9099,
      "impress": 9100,
      "conven": 9101,
      "remains": 9102,
      "parte": 9103,
      "ession": 9104,
      "Also": 9105,
      "Bekämpfung": 9106,
      "funding": 9107,
      "Western": 9108,
      "Prä": 9109,
      "Komprom": 9110,
      "Kop": 9111,
      "imension": 9112,
      "island": 9113,
      "Standpunkt": 9114,
      "Video": 9115,
      "setzungen": 9116,
      "iately": 9117,
      "zweite": 9118,
      "Gruppen": 9119,
      "einschließlich": 9120,
      "Sen": 9121,
      "ausgestattet": 9122,
      "Jahrhundert": 9123,
      "!!": 9124,
      "tom": 9125,
      "Free": 9126,
      "infra": 9127,
      "supported": 9128,
      "Spa": 9129,
      "leave": 9130,
      "las": 9131,
      "ering": 9132,
      "consumer": 9133,
      "roat": 9134,
      "Privat": 9135,
      "icy": 9136,
      "hear": 9137,
      "billion": 9138,
      "Erachten": 9139,
      "Kommissarin": 9140,
      "iture": 9141,
      "else": 9142,
      "Sommer": 9143,
      "Dinge": 9144,
      "meines": 9145,
      "'.": 9146,
      "independent": 9147,
      "Instrument": 9148,
      "ffe": 9149,
      "Erachtens": 9150,
      "foot": 9151,
      "Kosovo": 9152,
      "ras": 9153,
      "vorliegen": 9154,
      "maß": 9155,
      "Staat": 9156,
      "Auff": 9157,
      "avoid": 9158,
      "aufgenommen": 9159,
      "sätz": 9160,
      "schütz": 9161,
      "Slo": 9162,
      "ara": 9163,
      "krimin": 9164,
      "King": 9165,
      "abzu": 9166,
      "restaurants": 9167,
      "purpose": 9168,
      "Site": 9169,
      "erheb": 9170,
      "zahlreiche": 9171,
      "wesentlich": 9172,
      "zeuge": 9173,
      "produce": 9174,
      "handel": 9175,
      "movement": 9176,
      "assistance": 9177,
      "Grand": 9178,
      "Instit": 9179,
      "school": 9180,
      "französ": 9181,
      "konzentr": 9182,
      "iency": 9183,
      "Bestimmungen": 9184,
      "vorgesehen": 9185,
      "Inde": 9186,
      "presents": 9187,
      "Booking": 9188,
      "emer": 9189,
      "rule": 9190,
      "creating": 9191,
      "influ": 9192,
      "Hel": 9193,
      "wurf": 9194,
      "quare": 9195,
      "Such": 9196,
      "inger": 9197,
      "Nur": 9198,
      "transparen": 9199,
      "engen": 9200,
      "ielt": 9201,
      "north": 9202,
      "quiet": 9203,
      "Basis": 9204,
      "Italian": 9205,
      "erhält": 9206,
      "atastrop": 9207,
      "perform": 9208,
      "surround": 9209,
      "sagte": 9210,
      "acceptable": 9211,
      "Dezember": 9212,
      "pointed": 9213,
      "Fortschritte": 9214,
      "....": 9215,
      "tät": 9216,
      "leader": 9217,
      "ghan": 9218,
      "comprehens": 9219,
      "Bon": 9220,
      "gerecht": 9221,
      "Technologie": 9222,
      "allein": 9223,
      "Ren": 9224,
      "wertung": 9225,
      "sprün": 9226,
      "Stad": 9227,
      "Gast": 9228,
      "ike": 9229,
      "tains": 9230,
      "concl": 9231,
      "DI": 9232,
      "industrie": 9233,
      "apartment": 9234,
      "iterranean": 9235,
      "möglichkeiten": 9236,
      "activity": 9237,
      "schätz": 9238,
      "itzer": 9239,
      "ollar": 9240,
      "leitet": 9241,
      "relation": 9242,
      "Preise": 9243,
      "Phil": 9244,
      "wander": 9245,
      "brought": 9246,
      "Lu": 9247,
      "Punkte": 9248,
      "ya": 9249,
      "keits": 9250,
      "braucht": 9251,
      "largest": 9252,
      "regulations": 9253,
      "medium": 9254,
      "nommen": 9255,
      "written": 9256,
      "außerdem": 9257,
      "Erklärung": 9258,
      "Bundes": 9259,
      "base": 9260,
      "steps": 9261,
      "sitzen": 9262,
      "January": 9263,
      "stelle": 9264,
      "Stelle": 9265,
      "sus": 9266,
      "Last": 9267,
      "Villa": 9268,
      "reign": 9269,
      "einheit": 9270,
      "solchen": 9271,
      "vorher": 9272,
      "üst": 9273,
      "child": 9274,
      "eval": 9275,
      "Mehrheit": 9276,
      "Prü": 9277,
      "pleased": 9278,
      "geln": 9279,
      "Feder": 9280,
      "etimes": 9281,
      "äst": 9282,
      "dadurch": 9283,
      "frequ": 9284,
      "Tem": 9285,
      "Tex": 9286,
      "except": 9287,
      "zweiten": 9288,
      "instruments": 9289,
      "Wä": 9290,
      "expla": 9291,
      "ilen": 9292,
      "Schweiz": 9293,
      "October": 9294,
      "categories": 9295,
      "berühm": 9296,
      "Det": 9297,
      "bor": 9298,
      "losen": 9299,
      "paid": 9300,
      "oben": 9301,
      "fishing": 9302,
      "section": 9303,
      "variety": 9304,
      "insgesamt": 9305,
      "morgen": 9306,
      "sha": 9307,
      "iffe": 9308,
      "conference": 9309,
      "legenheiten": 9310,
      "thous": 9311,
      "mous": 9312,
      "renov": 9313,
      "uner": 9314,
      "verse": 9315,
      "Vorschriften": 9316,
      "dlich": 9317,
      "instead": 9318,
      "message": 9319,
      "fisher": 9320,
      "einzige": 9321,
      "ständigen": 9322,
      "Gefahr": 9323,
      "és": 9324,
      "discussion": 9325,
      "utter": 9326,
      "gebaut": 9327,
      "Test": 9328,
      "repe": 9329,
      "kil": 9330,
      "jün": 9331,
      "Sign": 9332,
      "became": 9333,
      "Aufmerksam": 9334,
      "38": 9335,
      "illegal": 9336,
      "relationship": 9337,
      "anders": 9338,
      "allowed": 9339,
      "ology": 9340,
      "osop": 9341,
      "ategorien": 9342,
      "Mediterranean": 9343,
      "Every": 9344,
      "CE": 9345,
      "regards": 9346,
      "measure": 9347,
      "Volk": 9348,
      "study": 9349,
      "dut": 9350,
      "falt": 9351,
      "März": 9352,
      "UK": 9353,
      "ugs": 9354,
      "kürz": 9355,
      "Analy": 9356,
      "stability": 9357,
      "**": 9358,
      "Entscheidungen": 9359,
      "vergangenen": 9360,
      "fresh": 9361,
      "giving": 9362,
      "Bilder": 9363,
      "distance": 9364,
      "ades": 9365,
      "ously": 9366,
      "interesting": 9367,
      "Protokoll": 9368,
      "Verkehrs": 9369,
      "obvious": 9370,
      "Oktober": 9371,
      "deten": 9372,
      "Anforderungen": 9373,
      "Cons": 9374,
      "Landwirtschaft": 9375,
      "Öffentlich": 9376,
      "rig": 9377,
      "Mult": 9378,
      "bezogen": 9379,
      "Küche": 9380,
      "forget": 9381,
      "ries": 9382,
      "Mart": 9383,
      "Universit": 9384,
      "legislative": 9385,
      "Freiheit": 9386,
      "effort": 9387,
      "vorhanden": 9388,
      "gewiesen": 9389,
      "Hung": 9390,
      "klein": 9391,
      "started": 9392,
      "Aktion": 9393,
      "arenz": 9394,
      "bewertungen": 9395,
      "Metho": 9396,
      "Flü": 9397,
      "Log": 9398,
      "ias": 9399,
      "98": 9400,
      "ehe": 9401,
      "Center": 9402,
      "Aufmerksamkeit": 9403,
      "ürf": 9404,
      "Pap": 9405,
      "abkommen": 9406,
      "iker": 9407,
      "Prinzip": 9408,
      "Your": 9409,
      "Agent": 9410,
      "verkauf": 9411,
      "Today": 9412,
      "genießen": 9413,
      "leistungs": 9414,
      "won": 9415,
      "procedures": 9416,
      "brechen": 9417,
      "Spanish": 9418,
      "lösen": 9419,
      "types": 9420,
      "Rights": 9421,
      "coast": 9422,
      "resse": 9423,
      "Ansatz": 9424,
      "rene": 9425,
      "sonst": 9426,
      "Erzeug": 9427,
      "cement": 9428,
      "rum": 9429,
      "Präsidenten": 9430,
      "“,": 9431,
      "electron": 9432,
      "Juli": 9433,
      "ques": 9434,
      "Projekte": 9435,
      "hair": 9436,
      "architect": 9437,
      "preis": 9438,
      "opping": 9439,
      "iro": 9440,
      "versity": 9441,
      "ader": 9442,
      "Tal": 9443,
      "erfahren": 9444,
      "itude": 9445,
      "ails": 9446,
      "Gal": 9447,
      "advantage": 9448,
      "statement": 9449,
      "Bildung": 9450,
      "shops": 9451,
      "hältnis": 9452,
      "etary": 9453,
      "payment": 9454,
      "accep": 9455,
      "eigentlich": 9456,
      "craft": 9457,
      "keiner": 9458,
      "prises": 9459,
      "compon": 9460,
      "hom": 9461,
      "Städ": 9462,
      "Gel": 9463,
      "Berichts": 9464,
      "Grenzen": 9465,
      "\"...": 9466,
      "task": 9467,
      "34": 9468,
      "compromise": 9469,
      "transpar": 9470,
      "Vo": 9471,
      "sole": 9472,
      "agenda": 9473,
      "Bio": 9474,
      "exact": 9475,
      "Wider": 9476,
      "otes": 9477,
      "damage": 9478,
      "pover": 9479,
      "Stär": 9480,
      "occur": 9481,
      "Winter": 9482,
      "stärker": 9483,
      "contribution": 9484,
      "ape": 9485,
      "umb": 9486,
      "Cr": 9487,
      "Belg": 9488,
      "01": 9489,
      "provisions": 9490,
      "drive": 9491,
      "Anfrage": 9492,
      "served": 9493,
      "Straßen": 9494,
      "village": 9495,
      "labour": 9496,
      "historical": 9497,
      "Unternehmens": 9498,
      "folgenden": 9499,
      "ateral": 9500,
      "Development": 9501,
      "Bereiche": 9502,
      "bü": 9503,
      "Datei": 9504,
      "ato": 9505,
      "1997": 9506,
      "Bot": 9507,
      "üb": 9508,
      "Transparenz": 9509,
      "Arbeitnehmer": 9510,
      "leider": 9511,
      "auern": 9512,
      "serve": 9513,
      "Gästebewertungen": 9514,
      "anlage": 9515,
      "minor": 9516,
      "enntnis": 9517,
      "glück": 9518,
      "dise": 9519,
      "late": 9520,
      "consist": 9521,
      "Solidar": 9522,
      "violence": 9523,
      "July": 9524,
      "Ged": 9525,
      "sports": 9526,
      "fficiency": 9527,
      "EG": 9528,
      "poses": 9529,
      "gewöhn": 9530,
      "Mann": 9531,
      "perfe": 9532,
      "zi": 9533,
      "AK": 9534,
      "Ist": 9535,
      "During": 9536,
      "erwarten": 9537,
      "wirken": 9538,
      "konnten": 9539,
      "launch": 9540,
      "Nr": 9541,
      "dienen": 9542,
      "Rooms": 9543,
      "Diskussion": 9544,
      "lives": 9545,
      "eingesetzt": 9546,
      "temporary": 9547,
      "Empfehl": 9548,
      "Portugal": 9549,
      "ples": 9550,
      "conflict": 9551,
      "erinn": 9552,
      "häufig": 9553,
      "IB": 9554,
      "sprach": 9555,
      "decl": 9556,
      "prefer": 9557,
      "laufen": 9558,
      "Tagesordnung": 9559,
      "wine": 9560,
      "ming": 9561,
      "mensch": 9562,
      "dient": 9563,
      "ourselves": 9564,
      "wichtiger": 9565,
      "documents": 9566,
      ".)": 9567,
      "Mod": 9568,
      "depart": 9569,
      "ritts": 9570,
      "criteria": 9571,
      "nöt": 9572,
      "legit": 9573,
      "Agrar": 9574,
      "operating": 9575,
      "länger": 9576,
      "accord": 9577,
      "Flor": 9578,
      "wenige": 9579,
      "niedr": 9580,
      "Investitionen": 9581,
      "Urlaub": 9582,
      "Nationen": 9583,
      "fine": 9584,
      "tools": 9585,
      "Regeln": 9586,
      "decken": 9587,
      "griffen": 9588,
      "zieht": 9589,
      "Untersuch": 9590,
      "37": 9591,
      "Auftrag": 9592,
      "Republik": 9593,
      "roll": 9594,
      "reibung": 9595,
      "integrated": 9596,
      "IF": 9597,
      "anced": 9598,
      "Alt": 9599,
      "sort": 9600,
      "distribution": 9601,
      "finally": 9602,
      "Java": 9603,
      "geber": 9604,
      "Januar": 9605,
      "nel": 9606,
      "durchgeführt": 9607,
      "Start": 9608,
      "benefits": 9609,
      "...\"": 9610,
      "Bulgar": 9611,
      "leiten": 9612,
      "Mid": 9613,
      "unmittel": 9614,
      "beziehen": 9615,
      "listen": 9616,
      "constit": 9617,
      "Os": 9618,
      "Many": 9619,
      "growing": 9620,
      "dienst": 9621,
      "Firma": 9622,
      "spirit": 9623,
      "ücke": 9624,
      "vital": 9625,
      "Centre": 9626,
      "//": 9627,
      "Meine": 9628,
      "happy": 9629,
      "University": 9630,
      "Stu": 9631,
      "betreffen": 9632,
      "erc": 9633,
      "forderung": 9634,
      "aktuellen": 9635,
      "Linie": 9636,
      "ifik": 9637,
      "größte": 9638,
      "copy": 9639,
      "limit": 9640,
      "elements": 9641,
      "ktiven": 9642,
      "wesen": 9643,
      "dent": 9644,
      "Lebensmittel": 9645,
      "Spezial": 9646,
      "produz": 9647,
      "Sinne": 9648,
      "europäischer": 9649,
      "Tradition": 9650,
      "Afghan": 9651,
      "Schwier": 9652,
      "DA": 9653,
      "benötigen": 9654,
      "offiz": 9655,
      "alternative": 9656,
      "stabil": 9657,
      "constant": 9658,
      "Mobil": 9659,
      "dank": 9660,
      "ünd": 9661,
      "heben": 9662,
      "highest": 9663,
      "immediately": 9664,
      "Iraq": 9665,
      "ls": 9666,
      "höher": 9667,
      "ierende": 9668,
      "würdig": 9669,
      "ays": 9670,
      "dates": 9671,
      "plus": 9672,
      "Although": 9673,
      "apartments": 9674,
      "Enterprise": 9675,
      "Saf": 9676,
      "Veränder": 9677,
      "helpful": 9678,
      "forces": 9679,
      "motor": 9680,
      "Gründen": 9681,
      "Hä": 9682,
      "transparency": 9683,
      "ories": 9684,
      "Ve": 9685,
      "ihres": 9686,
      "gehend": 9687,
      "fire": 9688,
      "getan": 9689,
      "ality": 9690,
      "Aufenthalt": 9691,
      "imat": 9692,
      "parking": 9693,
      "angesichts": 9694,
      "lichkeiten": 9695,
      "klass": 9696,
      "goes": 9697,
      "mountain": 9698,
      "Green": 9699,
      "DF": 9700,
      "She": 9701,
      "institutional": 9702,
      "ham": 9703,
      "Koh": 9704,
      "drücklich": 9705,
      "Forschungs": 9706,
      "nes": 9707,
      "Schn": 9708,
      "Hins": 9709,
      "employees": 9710,
      "equal": 9711,
      "annual": 9712,
      "Hinsicht": 9713,
      "sinn": 9714,
      "kontroll": 9715,
      "Econom": 9716,
      "kannst": 9717,
      "cription": 9718,
      "PH": 9719,
      "geworden": 9720,
      "friends": 9721,
      "Rede": 9722,
      "orial": 9723,
      "useful": 9724,
      "bilden": 9725,
      "ursprün": 9726,
      "idge": 9727,
      "geschaffen": 9728,
      "Präsidentschaft": 9729,
      "400": 9730,
      "Atmosp": 9731,
      "99": 9732,
      "zeichnung": 9733,
      "applied": 9734,
      "mas": 9735,
      "fas": 9736,
      "reality": 9737,
      "Öffentlichkeit": 9738,
      "numerous": 9739,
      "stock": 9740,
      "wasser": 9741,
      "enh": 9742,
      "reli": 9743,
      "Auffassung": 9744,
      "eher": 9745,
      "analysis": 9746,
      "cert": 9747,
      "dence": 9748,
      "NG": 9749,
      "elections": 9750,
      "MP": 9751,
      "veröffentlich": 9752,
      "teach": 9753,
      "daily": 9754,
      "wart": 9755,
      "150": 9756,
      "ford": 9757,
      "quis": 9758,
      "Sache": 9759,
      "challenges": 9760,
      "bür": 9761,
      "Fon": 9762,
      "ille": 9763,
      "poverty": 9764,
      "AF": 9765,
      "opol": 9766,
      "occas": 9767,
      "processes": 9768,
      "Bemüh": 9769,
      "übrigen": 9770,
      "persons": 9771,
      "zusch": 9772,
      "lesen": 9773,
      "Ereign": 9774,
      "Vir": 9775,
      "wid": 9776,
      "Furthermore": 9777,
      "Betrieb": 9778,
      "33": 9779,
      "voc": 9780,
      "öffentliche": 9781,
      "Cast": 9782,
      "historic": 9783,
      "thought": 9784,
      "perman": 9785,
      "Aufgaben": 9786,
      "solidarity": 9787,
      "sätze": 9788,
      "Heute": 9789,
      "Obje": 9790,
      "hot": 9791,
      "demokratischen": 9792,
      "operations": 9793,
      "track": 9794,
      "geleg": 9795,
      "mic": 9796,
      "entsprechend": 9797,
      "werte": 9798,
      "Beteil": 9799,
      "brand": 9800,
      "weak": 9801,
      "Modell": 9802,
      "wortern": 9803,
      "berecht": 9804,
      "erneut": 9805,
      "Fäh": 9806,
      "consequences": 9807,
      "offering": 9808,
      "bathroom": 9809,
      "paar": 9810,
      "saying": 9811,
      "Palest": 9812,
      "options": 9813,
      "diejenigen": 9814,
      "schönen": 9815,
      "Human": 9816,
      "legation": 9817,
      "restr": 9818,
      "zeichnen": 9819,
      "früher": 9820,
      "kap": 9821,
      "Bürgern": 9822,
      "practical": 9823,
      "afr": 9824,
      "ologie": 9825,
      "beyond": 9826,
      "gnis": 9827,
      "expe": 9828,
      "Folge": 9829,
      "ogle": 9830,
      "Änderung": 9831,
      "entsprechenden": 9832,
      "vergessen": 9833,
      "begrüße": 9834,
      "bewusst": 9835,
      "lernen": 9836,
      "Vertreter": 9837,
      "leistung": 9838,
      "victim": 9839,
      "fühl": 9840,
      "Armut": 9841,
      "herz": 9842,
      "screen": 9843,
      "äre": 9844,
      "freie": 9845,
      "curren": 9846,
      "Sat": 9847,
      "itzen": 9848,
      "wechsel": 9849,
      "wr": 9850,
      "paign": 9851,
      "adequ": 9852,
      "Gericht": 9853,
      "tritt": 9854,
      "Beginn": 9855,
      "Ost": 9856,
      "kannt": 9857,
      "sely": 9858,
      "nungen": 9859,
      "Ressourcen": 9860,
      "rosoft": 9861,
      "ione": 9862,
      "izin": 9863,
      "kungen": 9864,
      "bill": 9865,
      "humanit": 9866,
      "beitragen": 9867,
      "bio": 9868,
      "Ven": 9869,
      "buffet": 9870,
      "Sm": 9871,
      "ye": 9872,
      "carry": 9873,
      "ira": 9874,
      "unten": 9875,
      "zuführen": 9876,
      "iente": 9877,
      "sales": 9878,
      "offered": 9879,
      "scheinlich": 9880,
      "Restaurants": 9881,
      "Security": 9882,
      "verstanden": 9883,
      "zah": 9884,
      "Austria": 9885,
      "colleagues": 9886,
      "Fällen": 9887,
      "Nachbar": 9888,
      "minimum": 9889,
      "Bemühungen": 9890,
      "syn": 9891,
      "sil": 9892,
      "hesion": 9893,
      "Archite": 9894,
      "behandelt": 9895,
      "Bay": 9896,
      "Wohl": 9897,
      "anden": 9898,
      "komp": 9899,
      "NAT": 9900,
      "elling": 9901,
      "News": 9902,
      "steigen": 9903,
      "wanted": 9904,
      "Schlusselwortern": 9905,
      "Even": 9906,
      "langfrist": 9907,
      "bir": 9908,
      "behalten": 9909,
      "Behandlung": 9910,
      "scientific": 9911,
      "ideas": 9912,
      "Monaten": 9913,
      "Sitzung": 9914,
      "modified": 9915,
      "published": 9916,
      "Public": 9917,
      "beschrän": 9918,
      "Pet": 9919,
      "iveau": 9920,
      "gruppe": 9921,
      "terrorism": 9922,
      "Bedürf": 9923,
      "195": 9924,
      "requires": 9925,
      "icated": 9926,
      "Dritt": 9927,
      "tit": 9928,
      "Dateien": 9929,
      "OT": 9930,
      "usch": 9931,
      "unterst": 9932,
      "Grö": 9933,
      "Shop": 9934,
      "verw": 9935,
      "Werte": 9936,
      "verz": 9937,
      "bedingt": 9938,
      "verhindern": 9939,
      "zufrieden": 9940,
      "shopping": 9941,
      "spee": 9942,
      "flü": 9943,
      "):": 9944,
      "organisations": 9945,
      "implemented": 9946,
      "kret": 9947,
      "ausgezeich": 9948,
      "Microsoft": 9949,
      "Wunsch": 9950,
      "waste": 9951,
      "Stabilität": 9952,
      "IR": 9953,
      "street": 9954,
      "spannen": 9955,
      "Directive": 9956,
      "reference": 9957,
      "1996": 9958,
      "bezieh": 9959,
      "machine": 9960,
      "Moder": 9961,
      "morrow": 9962,
      "Mc": 9963,
      "weeks": 9964,
      "starting": 9965,
      "Cy": 9966,
      "zep": 9967,
      "gemeinschaft": 9968,
      "zeiten": 9969,
      "monitoring": 9970,
      "berücksichtigt": 9971,
      "Tagen": 9972,
      "formul": 9973,
      "erkennen": 9974,
      "lost": 9975,
      "domin": 9976,
      "doubt": 9977,
      "hätten": 9978,
      "netz": 9979,
      "efficiency": 9980,
      "steuer": 9981,
      "{{": 9982,
      "Spieler": 9983,
      "Gebäude": 9984,
      "tte": 9985,
      "Telefon": 9986,
      "meaning": 9987,
      "partnership": 9988,
      "estic": 9989,
      "erfolgt": 9990,
      "dauer": 9991,
      "tomorrow": 9992,
      "fill": 9993,
      "clients": 9994,
      "Koordin": 9995,
      "Inhalt": 9996,
      "changed": 9997,
      "maximum": 9998,
      "beant": 9999,
      "congratulate": 10000,
      "anderem": 10001,
      "crucial": 10002,
      "Cam": 10003,
      "discrimin": 10004,
      "reduction": 10005,
      "IG": 10006,
      "Schließ": 10007,
      "email": 10008,
      "Milliar": 10009,
      "ost": 10010,
      "abe": 10011,
      "minute": 10012,
      "technischen": 10013,
      "images": 10014,
      "ienz": 10015,
      "Mess": 10016,
      "weist": 10017,
      "relating": 10018,
      "Bürgerinnen": 10019,
      "Dien": 10020,
      "technologies": 10021,
      "ischem": 10022,
      "fried": 10023,
      "endlich": 10024,
      "95": 10025,
      "Natürlich": 10026,
      "Nacht": 10027,
      "umfang": 10028,
      "gewesen": 10029,
      "John": 10030,
      "AV": 10031,
      "langt": 10032,
      "tex": 10033,
      "Mand": 10034,
      "pursu": 10035,
      "preci": 10036,
      "advert": 10037,
      "Atmosphäre": 10038,
      "restrict": 10039,
      "sometimes": 10040,
      "morning": 10041,
      "alität": 10042,
      "Doppel": 10043,
      "förder": 10044,
      "spa": 10045,
      "97": 10046,
      "circum": 10047,
      "richtige": 10048,
      "Airport": 10049,
      "versucht": 10050,
      "ellschaften": 10051,
      "Gest": 10052,
      "chair": 10053,
      "Out": 10054,
      "Ins": 10055,
      "Minder": 10056,
      "format": 10057,
      "games": 10058,
      "decor": 10059,
      "usw": 10060,
      "Camp": 10061,
      "comprehensive": 10062,
      "Vergangen": 10063,
      "Aller": 10064,
      "Amendment": 10065,
      "caused": 10066,
      "aver": 10067,
      "jem": 10068,
      "touch": 10069,
      "Altern": 10070,
      "join": 10071,
      "deutschen": 10072,
      "effizient": 10073,
      "cities": 10074,
      "valid": 10075,
      "gers": 10076,
      "Verteid": 10077,
      "Arab": 10078,
      "Erfahrungen": 10079,
      "angeboten": 10080,
      "Na": 10081,
      "Lang": 10082,
      "degre": 10083,
      "Finanzierung": 10084,
      "urance": 10085,
      "würd": 10086,
      "Hil": 10087,
      "While": 10088,
      "Rats": 10089,
      "stehenden": 10090,
      "bemü": 10091,
      "select": 10092,
      "erns": 10093,
      "critic": 10094,
      "campaign": 10095,
      "ek": 10096,
      "Mass": 10097,
      "geschrieben": 10098,
      "ista": 10099,
      "Democr": 10100,
      "accordance": 10101,
      "sechs": 10102,
      "plans": 10103,
      "rapid": 10104,
      "mi": 10105,
      "modernen": 10106,
      "Kan": 10107,
      "ley": 10108,
      "anything": 10109,
      "Ty": 10110,
      "Produktions": 10111,
      "Rechtsvorschriften": 10112,
      "raf": 10113,
      "Praxis": 10114,
      "Download": 10115,
      "Kredit": 10116,
      "verläss": 10117,
      "heav": 10118,
      "alone": 10119,
      "überhaupt": 10120,
      "',": 10121,
      "vollständig": 10122,
      "target": 10123,
      "tourist": 10124,
      "Spanien": 10125,
      "swimming": 10126,
      "Tier": 10127,
      "warum": 10128,
      "begin": 10129,
      "ola": 10130,
      "historischen": 10131,
      "map": 10132,
      "pictures": 10133,
      "probably": 10134,
      "Are": 10135,
      "ständige": 10136,
      "menu": 10137,
      "erfüllen": 10138,
      "erklärt": 10139,
      "fügen": 10140,
      "players": 10141,
      "verantwortlich": 10142,
      "trägen": 10143,
      "losigkeit": 10144,
      "Mos": 10145,
      "legant": 10146,
      "languages": 10147,
      "Stock": 10148,
      "igungen": 10149,
      "beru": 10150,
      "interested": 10151,
      "temper": 10152,
      "zahlreichen": 10153,
      "Fel": 10154,
      "Google": 10155,
      "kitchen": 10156,
      "ather": 10157,
      "säm": 10158,
      "bote": 10159,
      "hervorragen": 10160,
      "Terrorismus": 10161,
      "bul": 10162,
      "Waren": 10163,
      "Conference": 10164,
      "began": 10165,
      "era": 10166,
      "fit": 10167,
      "welches": 10168,
      "Beruf": 10169,
      "Denn": 10170,
      "neues": 10171,
      "Lassen": 10172,
      "Frankfur": 10173,
      "jüng": 10174,
      "gment": 10175,
      "likely": 10176,
      "Ther": 10177,
      "daten": 10178,
      "stattung": 10179,
      "Sonder": 10180,
      "langen": 10181,
      "player": 10182,
      "comb": 10183,
      "italien": 10184,
      "extent": 10185,
      "accession": 10186,
      "Firmen": 10187,
      "farmers": 10188,
      "worldwide": 10189,
      "gruppen": 10190,
      "Aspekte": 10191,
      "release": 10192,
      "karte": 10193,
[...]
